{
  "version": "1.0",
  "truncation": null,
  "padding": null,
  "added_tokens": [
    {
      "id": 0,
      "content": "[UNK]",
      "single_word": false,
      "lstrip": false,
      "rstrip": false,
      "normalized": false,
      "special": true
    },
    {
      "id": 1,
      "content": "[LOGS]",
      "single_word": false,
      "lstrip": false,
      "rstrip": false,
      "normalized": false,
      "special": true
    },
    {
      "id": 2,
      "content": "[EXPLANATION]",
      "single_word": false,
      "lstrip": false,
      "rstrip": false,
      "normalized": false,
      "special": true
    }
  ],
  "normalizer": null,
  "pre_tokenizer": {
    "type": "ByteLevel",
    "add_prefix_space": false,
    "trim_offsets": true,
    "use_regex": true
  },
  "post_processor": null,
  "decoder": {
    "type": "ByteLevel",
    "add_prefix_space": true,
    "trim_offsets": true,
    "use_regex": true
  },
  "model": {
    "type": "BPE",
    "dropout": null,
    "unk_token": "[UNK]",
    "continuing_subword_prefix": null,
    "end_of_word_suffix": null,
    "fuse_unk": false,
    "byte_fallback": false,
    "ignore_merges": false,
    "vocab": {
      "[UNK]": 0,
      "[LOGS]": 1,
      "[EXPLANATION]": 2,
      "!": 3,
      "\"": 4,
      "#": 5,
      "$": 6,
      "%": 7,
      "&": 8,
      "'": 9,
      "(": 10,
      ")": 11,
      "*": 12,
      "+": 13,
      ",": 14,
      "-": 15,
      ".": 16,
      "/": 17,
      "0": 18,
      "1": 19,
      "2": 20,
      "3": 21,
      "4": 22,
      "5": 23,
      "6": 24,
      "7": 25,
      "8": 26,
      "9": 27,
      ":": 28,
      ";": 29,
      "<": 30,
      "=": 31,
      ">": 32,
      "?": 33,
      "@": 34,
      "A": 35,
      "B": 36,
      "C": 37,
      "D": 38,
      "E": 39,
      "F": 40,
      "G": 41,
      "H": 42,
      "I": 43,
      "J": 44,
      "K": 45,
      "L": 46,
      "M": 47,
      "N": 48,
      "O": 49,
      "P": 50,
      "Q": 51,
      "R": 52,
      "S": 53,
      "T": 54,
      "U": 55,
      "V": 56,
      "W": 57,
      "X": 58,
      "Y": 59,
      "Z": 60,
      "[": 61,
      "\\": 62,
      "]": 63,
      "^": 64,
      "_": 65,
      "`": 66,
      "a": 67,
      "b": 68,
      "c": 69,
      "d": 70,
      "e": 71,
      "f": 72,
      "g": 73,
      "h": 74,
      "i": 75,
      "j": 76,
      "k": 77,
      "l": 78,
      "m": 79,
      "n": 80,
      "o": 81,
      "p": 82,
      "q": 83,
      "r": 84,
      "s": 85,
      "t": 86,
      "u": 87,
      "v": 88,
      "w": 89,
      "x": 90,
      "y": 91,
      "z": 92,
      "{": 93,
      "|": 94,
      "}": 95,
      "~": 96,
      "¡": 97,
      "¢": 98,
      "£": 99,
      "¤": 100,
      "¥": 101,
      "¦": 102,
      "§": 103,
      "¨": 104,
      "©": 105,
      "ª": 106,
      "«": 107,
      "¬": 108,
      "®": 109,
      "¯": 110,
      "°": 111,
      "±": 112,
      "²": 113,
      "³": 114,
      "´": 115,
      "µ": 116,
      "¶": 117,
      "·": 118,
      "¸": 119,
      "¹": 120,
      "º": 121,
      "»": 122,
      "¼": 123,
      "½": 124,
      "¾": 125,
      "¿": 126,
      "Â": 127,
      "Ã": 128,
      "Ä": 129,
      "Å": 130,
      "Æ": 131,
      "Ç": 132,
      "È": 133,
      "É": 134,
      "Ê": 135,
      "Ë": 136,
      "Ì": 137,
      "Í": 138,
      "Î": 139,
      "Ï": 140,
      "Ð": 141,
      "Ñ": 142,
      "Ò": 143,
      "Ô": 144,
      "Õ": 145,
      "Ö": 146,
      "×": 147,
      "Ø": 148,
      "Ù": 149,
      "Ú": 150,
      "Û": 151,
      "à": 152,
      "á": 153,
      "â": 154,
      "ã": 155,
      "ä": 156,
      "å": 157,
      "æ": 158,
      "ç": 159,
      "è": 160,
      "é": 161,
      "ê": 162,
      "ë": 163,
      "ì": 164,
      "í": 165,
      "ï": 166,
      "ð": 167,
      "Ā": 168,
      "ĉ": 169,
      "Ċ": 170,
      "Č": 171,
      "Ġ": 172,
      "ġ": 173,
      "Ģ": 174,
      "ģ": 175,
      "Ĥ": 176,
      "ĥ": 177,
      "Ħ": 178,
      "ħ": 179,
      "Ĩ": 180,
      "ĩ": 181,
      "Ī": 182,
      "ī": 183,
      "Ĭ": 184,
      "ĭ": 185,
      "Į": 186,
      "į": 187,
      "İ": 188,
      "ı": 189,
      "Ĳ": 190,
      "ĳ": 191,
      "Ĵ": 192,
      "ĵ": 193,
      "Ķ": 194,
      "ķ": 195,
      "ĸ": 196,
      "Ĺ": 197,
      "ĺ": 198,
      "Ļ": 199,
      "ļ": 200,
      "Ľ": 201,
      "ľ": 202,
      "Ŀ": 203,
      "ŀ": 204,
      "Ł": 205,
      "ł": 206,
      "Ń": 207,
      "ĠĠ": 208,
      "ĠĠĠĠ": 209,
      "Ġt": 210,
      "in": 211,
      "Ġa": 212,
      "er": 213,
      "on": 214,
      "he": 215,
      "re": 216,
      "Ġs": 217,
      "or": 218,
      "at": 219,
      "en": 220,
      "ĠĠĠ": 221,
      "es": 222,
      "ĠĠĠĠĠĠĠĠ": 223,
      "Ġthe": 224,
      "Ġc": 225,
      "it": 226,
      "Ġw": 227,
      "is": 228,
      "an": 229,
      "ou": 230,
      "Ġf": 231,
      "al": 232,
      "ed": 233,
      "Ġp": 234,
      "ar": 235,
      "ing": 236,
      "Ġb": 237,
      "Ġo": 238,
      "el": 239,
      "nd": 240,
      "Ġd": 241,
      "Ġm": 242,
      "ro": 243,
      "ion": 244,
      "Ġin": 245,
      "le": 246,
      "Ġto": 247,
      "as": 248,
      "ic": 249,
      "ĠĠĠĠĠĠĠ": 250,
      "Ġof": 251,
      "et": 252,
      "Ġand": 253,
      "Ġh": 254,
      "st": 255,
      "il": 256,
      "Ġn": 257,
      "ent": 258,
      "om": 259,
      "Ġth": 260,
      "Ġre": 261,
      "ct": 262,
      "Ġl": 263,
      "am": 264,
      "im": 265,
      "id": 266,
      "Ġ=": 267,
      "Ġ1": 268,
      "ut": 269,
      "ot": 270,
      "ĠI": 271,
      "Ġe": 272,
      "se": 273,
      "Ġ2": 274,
      "ce": 275,
      "âĢ": 276,
      "Ġg": 277,
      "ad": 278,
      "Ġfor": 279,
      "ĠT": 280,
      "Ġu": 281,
      "ver": 282,
      "ve": 283,
      "Ġis": 284,
      "ol": 285,
      "elf": 286,
      "ig": 287,
      "ur": 288,
      "Ġy": 289,
      "ĠS": 290,
      "ĠĠĠĠĠĠĠĠĠĠĠ": 291,
      "ay": 292,
      "Ġ-": 293,
      "if": 294,
      "ch": 295,
      "ow": 296,
      "ation": 297,
      "ul": 298,
      "od": 299,
      "Ġst": 300,
      "ĠC": 301,
      "ĠA": 302,
      "ag": 303,
      "Ġon": 304,
      "Ġbe": 305,
      "00": 306,
      "Ġ'": 307,
      "ly": 308,
      "ap": 309,
      "ith": 310,
      "Ġyou": 311,
      "est": 312,
      "Ġ\"": 313,
      "ir": 314,
      "Ġ(": 315,
      "ab": 316,
      "ac": 317,
      "ate": 318,
      "lo": 319,
      "ter": 320,
      "um": 321,
      "ĠĠĠĠĠĠĠĠĠĠĠĠĠĠĠĠ": 322,
      "01": 323,
      "--": 324,
      "ĠM": 325,
      "th": 326,
      "Ġpro": 327,
      "Ġthat": 328,
      "pe": 329,
      "Ġr": 330,
      "em": 331,
      "Ġ[": 332,
      "ess": 333,
      "Ġas": 334,
      "Ġwith": 335,
      "ser": 336,
      "Ġ0": 337,
      "ort": 338,
      "rom": 339,
      "Ġself": 340,
      "un": 341,
      "Ġde": 342,
      "ist": 343,
      "qu": 344,
      "ame": 345,
      "ers": 346,
      "out": 347,
      "ĠP": 348,
      "Ġit": 349,
      "ri": 350,
      "Ġcon": 351,
      "ke": 352,
      "Ġwh": 353,
      "Ġcom": 354,
      "ĠF": 355,
      "ill": 356,
      "ĠB": 357,
      "res": 358,
      "ĠN": 359,
      "ect": 360,
      "âĢĻ": 361,
      "10": 362,
      "ĠH": 363,
      "ĠW": 364,
      "pt": 365,
      "Ġal": 366,
      "UM": 367,
      "Ġan": 368,
      "ht": 369,
      "ex": 370,
      "and": 371,
      "NUM": 372,
      "us": 373,
      "):": 374,
      "ĠL": 375,
      "ĠD": 376,
      "##": 377,
      "end": 378,
      "Ġex": 379,
      "ĠR": 380,
      "Ġor": 381,
      "ain": 382,
      "op": 383,
      "our": 384,
      "Ġv": 385,
      "Ġnot": 386,
      "ore": 387,
      "ue": 388,
      "ec": 389,
      "Ġat": 390,
      "nt": 391,
      "Ġare": 392,
      "ere": 393,
      "port": 394,
      "oc": 395,
      "one": 396,
      "',": 397,
      "ork": 398,
      "Ġhe": 399,
      "os": 400,
      "ld": 401,
      "ov": 402,
      "Ġby": 403,
      "ew": 404,
      "sh": 405,
      "Ġif": 406,
      "com": 407,
      "pl": 408,
      "Ġch": 409,
      "ep": 410,
      "age": 411,
      "Ġfrom": 412,
      "ail": 413,
      "ure": 414,
      "self": 415,
      "Ġ#": 416,
      "art": 417,
      "iv": 418,
      "ity": 419,
      "ass": 420,
      "ave": 421,
      "ĠĠĠĠĠĠĠĠĠĠĠĠĠĠĠ": 422,
      "all": 423,
      "cl": 424,
      "ĠO": 425,
      "ĠThe": 426,
      "ime": 427,
      "ĠE": 428,
      "ment": 429,
      "Ġwe": 430,
      "ile": 431,
      "ack": 432,
      "Ġ<": 433,
      "07": 434,
      "ies": 435,
      "urn": 436,
      "()": 437,
      "iz": 438,
      "Ġsh": 439,
      "Ġthis": 440,
      "ost": 441,
      "Ġwas": 442,
      "ĠG": 443,
      "ust": 444,
      "ant": 445,
      "Ġk": 446,
      "rou": 447,
      "per": 448,
      "oo": 449,
      "ight": 450,
      "put": 451,
      "ive": 452,
      "act": 453,
      "ty": 454,
      "Ġim": 455,
      "Ġsu": 456,
      "':": 457,
      "----": 458,
      "ata": 459,
      "ard": 460,
      "ice": 461,
      "Ġdef": 462,
      "Ġtr": 463,
      "),": 464,
      "Ġhave": 465,
      "ine": 466,
      "Ġ3": 467,
      "ip": 468,
      "ge": 469,
      "orm": 470,
      "16": 471,
      "ud": 472,
      "ial": 473,
      "\"\"": 474,
      "able": 475,
      "og": 476,
      "ind": 477,
      "ult": 478,
      "ĠâĢ": 479,
      "tr": 480,
      "05": 481,
      "con": 482,
      "Ġret": 483,
      "ions": 484,
      "int": 485,
      "name": 486,
      "Ġle": 487,
      "Ġj": 488,
      "201": 489,
      "]:": 490,
      "ord": 491,
      "Ġyour": 492,
      "Ġcan": 493,
      "ib": 494,
      "ath": 495,
      "ple": 496,
      "17": 497,
      "ould": 498,
      "ast": 499,
      "are": 500,
      "HE": 501,
      "Ġwill": 502,
      "ĠJ": 503,
      "ck": 504,
      "ance": 505,
      "ase": 506,
      "02": 507,
      "get": 508,
      "ear": 509,
      "ff": 510,
      "__": 511,
      "Ġdo": 512,
      "Ġpl": 513,
      "\",": 514,
      "Ġreturn": 515,
      "12": 516,
      "ĠK": 517,
      "ror": 518,
      "ire": 519,
      "Ġab": 520,
      "Ġall": 521,
      "ell": 522,
      "pro": 523,
      "Ġout": 524,
      "ova": 525,
      "11": 526,
      "Ġ200": 527,
      "St": 528,
      "Ġcl": 529,
      "ated": 530,
      "..": 531,
      "ak": 532,
      "Ġres": 533,
      "HEX": 534,
      "Ġ/": 535,
      "to": 536,
      "'s": 537,
      "Ġ4": 538,
      "ook": 539,
      "ef": 540,
      "Ġ201": 541,
      "Ġad": 542,
      "av": 543,
      "ans": 544,
      "ens": 545,
      "ide": 546,
      "Ġse": 547,
      "ĠU": 548,
      "cess": 549,
      "ace": 550,
      "gh": 551,
      "ient": 552,
      "Ġhas": 553,
      "ub": 554,
      "form": 555,
      "Ġtime": 556,
      "bo": 557,
      "ode": 558,
      "ory": 559,
      "('": 560,
      "ake": 561,
      "ome": 562,
      "ally": 563,
      "ĠIn": 564,
      "Ġup": 565,
      "ĠTh": 566,
      "Ġgo": 567,
      "Ġbut": 568,
      "Ġus": 569,
      "Ġ10": 570,
      "18": 571,
      "19": 572,
      "Ġme": 573,
      "ther": 574,
      "Ġ19": 575,
      "ich": 576,
      "val": 577,
      "ict": 578,
      "hen": 579,
      ").": 580,
      "Ġel": 581,
      "Ġen": 582,
      "Ġ5": 583,
      "ign": 584,
      "30": 585,
      "ber": 586,
      "The": 587,
      "####": 588,
      "ID": 589,
      "log": 590,
      "ress": 591,
      "Ġget": 592,
      "âĢĿ": 593,
      "Ġcont": 594,
      "ong": 595,
      "ext": 596,
      "ite": 597,
      "vers": 598,
      "ary": 599,
      "ount": 600,
      "str": 601,
      "Ġun": 602,
      "RE": 603,
      "))": 604,
      "==": 605,
      "Ġac": 606,
      "Ġap": 607,
      "Ġ\"\"\"": 608,
      "ence": 609,
      "ĠIN": 610,
      "Ġar": 611,
      "Ġmore": 612,
      "Ġmy": 613,
      "shd": 614,
      "22": 615,
      "ang": 616,
      "sert": 617,
      "ry": 618,
      "Ġsc": 619,
      "Ġso": 620,
      "ject": 621,
      "FO": 622,
      "hk": 623,
      "Ġthey": 624,
      "ction": 625,
      "Ġwork": 626,
      "du": 627,
      "uth": 628,
      "ach": 629,
      "very": 630,
      "up": 631,
      "ix": 632,
      "ous": 633,
      "own": 634,
      "Ġro": 635,
      "ild": 636,
      "14": 637,
      "ob": 638,
      "25": 639,
      "Ġ+": 640,
      "Ġone": 641,
      "Ġimport": 642,
      "Ġtheir": 643,
      "],": 644,
      "13": 645,
      "Ġstr": 646,
      "Ġne": 647,
      "ĠV": 648,
      "nect": 649,
      "so": 650,
      "ption": 651,
      "ound": 652,
      "ĠINFO": 653,
      "ĠNone": 654,
      "Ġqu": 655,
      "ize": 656,
      "error": 657,
      "._": 658,
      "Ġhis": 659,
      "arg": 660,
      "fer": 661,
      "ings": 662,
      "Ġ:": 663,
      "ication": 664,
      "Ġ*": 665,
      "Ġ{": 666,
      "')": 667,
      "Ġpr": 668,
      "type": 669,
      "aw": 670,
      "ick": 671,
      "ia": 672,
      "29": 673,
      "anag": 674,
      "ll": 675,
      "ern": 676,
      "Ġwhich": 677,
      "app": 678,
      "ax": 679,
      "Ġnew": 680,
      "ĠĠĠĠĠĠĠĠĠĠĠĠĠĠĠĠĠĠĠ": 681,
      "ĠĠĠĠĠĠĠĠĠĠĠĠĠĠĠĠĠĠĠĠĠĠĠĠĠĠĠĠĠĠĠĠ": 682,
      "Ġdis": 683,
      "(\"": 684,
      "Ġabout": 685,
      "Ġser": 686,
      "Ġper": 687,
      "Ġwho": 688,
      "ond": 689,
      "31": 690,
      "xy": 691,
      "key": 692,
      "ĠâĢľ": 693,
      "Ġop": 694,
      "set": 695,
      "par": 696,
      "ink": 697,
      "34": 698,
      "ĠSt": 699,
      "au": 700,
      "ev": 701,
      "ww": 702,
      "ents": 703,
      "ike": 704,
      "=\"": 705,
      "ĠY": 706,
      "Ġour": 707,
      "Ġ18": 708,
      "ays": 709,
      "ree": 710,
      "Ġpre": 711,
      "ition": 712,
      "Ġ6": 713,
      "--------": 714,
      "['": 715,
      "ark": 716,
      "15": 717,
      "Ġsshd": 718,
      "TT": 719,
      "gr": 720,
      "ms": 721,
      "23": 722,
      "pute": 723,
      "Ġev": 724,
      "reat": 725,
      "ical": 726,
      "from": 727,
      "Ġ==": 728,
      "oth": 729,
      "ĠĠĠĠĠ": 730,
      "In": 731,
      "']": 732,
      "tp": 733,
      "Ġproxy": 734,
      "any": 735,
      "Ġany": 736,
      "odel": 737,
      "Ġsp": 738,
      "Ġother": 739,
      "def": 740,
      "nova": 741,
      "ely": 742,
      "Ġ_": 743,
      "24": 744,
      "57": 745,
      "low": 746,
      "sc": 747,
      "eth": 748,
      "26": 749,
      "api": 750,
      "ors": 751,
      "pec": 752,
      "Ġuser": 753,
      "Work": 754,
      "ations": 755,
      "ĠLab": 756,
      "compute": 757,
      "\")": 758,
      "Step": 759,
      "rough": 760,
      "Ġwhen": 761,
      "ype": 762,
      "eb": 763,
      "Ġyear": 764,
      "TTP": 765,
      "atch": 766,
      "rue": 767,
      "irst": 768,
      "Ġcomp": 769,
      "old": 770,
      "Ġpart": 771,
      "Ġval": 772,
      "anc": 773,
      "hed": 774,
      "Worker": 775,
      "Ġalso": 776,
      "Ġsome": 777,
      "35": 778,
      "ise": 779,
      "20": 780,
      "aid": 781,
      "ĠCh": 782,
      "Ġinter": 783,
      "ock": 784,
      "anager": 785,
      "Ġag": 786,
      "ĠHTTP": 787,
      "ĠIt": 788,
      "edu": 789,
      "2017": 790,
      "Ġhad": 791,
      "ange": 792,
      "SZ": 793,
      "ĠLabSZ": 794,
      "Ġkn": 795,
      "AR": 796,
      "ug": 797,
      "Ġind": 798,
      "Ġbeen": 799,
      "Ġover": 800,
      "te": 801,
      "Ġ2017": 802,
      "path": 803,
      "fig": 804,
      "Ġthrough": 805,
      "ie": 806,
      "Ġtest": 807,
      "ft": 808,
      "etw": 809,
      "Ġno": 810,
      "ish": 811,
      "\":": 812,
      "ener": 813,
      "ool": 814,
      "Ġthere": 815,
      "var": 816,
      "ove": 817,
      "Ġadd": 818,
      "atus": 819,
      "Ġrequ": 820,
      "rib": 821,
      "user": 822,
      "iel": 823,
      "Ġcombo": 824,
      "heck": 825,
      "Ġcol": 826,
      "nder": 827,
      "Ġnova": 828,
      "ates": 829,
      "data": 830,
      "roup": 831,
      "Ġte": 832,
      "Th": 833,
      "Ġlog": 834,
      "oint": 835,
      "2015": 836,
      "vel": 837,
      "Ġlike": 838,
      "ning": 839,
      "49": 840,
      "pect": 841,
      "Ġwere": 842,
      "Ġdata": 843,
      "row": 844,
      "Ġwould": 845,
      "sp": 846,
      "Ġher": 847,
      "Ġoff": 848,
      "Ġwhat": 849,
      "enc": 850,
      "Ġset": 851,
      "pre": 852,
      "Ġthem": 853,
      "Ġfe": 854,
      "tes": 855,
      "27": 856,
      "ield": 857,
      "Ġthan": 858,
      "Qu": 859,
      "ont": 860,
      "alse": 861,
      "Ġ20": 862,
      "Jul": 863,
      "Ġpe": 864,
      "stance": 865,
      "igh": 866,
      "Ġsy": 867,
      "Ġcomm": 868,
      "Ġdes": 869,
      "pon": 870,
      "Ġlen": 871,
      "Ġlist": 872,
      "ache": 873,
      "fter": 874,
      "Ġjust": 875,
      "Ġ[<": 876,
      "**": 877,
      "ernel": 878,
      "Ġinto": 879,
      "Ġuse": 880,
      "43": 881,
      "read": 882,
      "ual": 883,
      "55": 884,
      "'t": 885,
      "Ġ8": 886,
      "cu": 887,
      "add": 888,
      "pr": 889,
      "vice": 890,
      "clud": 891,
      "Ġneed": 892,
      "ss": 893,
      "Ġpass": 894,
      "ade": 895,
      "REQ": 896,
      "Ġrec": 897,
      "iew": 898,
      "46": 899,
      "lp": 900,
      "Ġhow": 901,
      "itt": 902,
      "Ġem": 903,
      "ose": 904,
      "Ġopen": 905,
      "cept": 906,
      "Ġkernel": 907,
      "Ġ-]": 908,
      "REQID": 909,
      "vir": 910,
      "cre": 911,
      "Ġ7": 912,
      "Ġlif": 913,
      "|<": 914,
      ">|": 915,
      ">-": 916,
      "Ġact": 917,
      "wo": 918,
      "Ġam": 919,
      "88": 920,
      "ne": 921,
      "64": 922,
      "ived": 923,
      "Ġclo": 924,
      "iss": 925,
      "Ġx": 926,
      "Ġmay": 927,
      "file": 928,
      "ĠThis": 929,
      "class": 930,
      "Ġ2005": 931,
      "Ġfirst": 932,
      "ask": 933,
      "Ġname": 934,
      "nection": 935,
      "ople": 936,
      "Ġsaid": 937,
      "Ġsec": 938,
      "les": 939,
      "ied": 940,
      "Ġfail": 941,
      "ET": 942,
      "ra": 943,
      "Ġnum": 944,
      "vis": 945,
      "Ġ17": 946,
      "min": 947,
      "Ġdoes": 948,
      "ource": 949,
      "ater": 950,
      "fo": 951,
      "Ġits": 952,
      "Ġonly": 953,
      "Ġid": 954,
      "ful": 955,
      "03": 956,
      "08": 957,
      "ues": 958,
      "ices": 959,
      "ating": 960,
      "etail": 961,
      "Ġprocess": 962,
      "ER": 963,
      "init": 964,
      "IN": 965,
      "Ġelse": 966,
      "########": 967,
      "Ġbytes": 968,
      "Dec": 969,
      "Ġ16": 970,
      "nc": 971,
      "Ġbu": 972,
      "exe": 973,
      "ian": 974,
      "ml": 975,
      "Ġob": 976,
      "},": 977,
      "args": 978,
      "ĠRe": 979,
      "ru": 980,
      "Ġaut": 981,
      "ause": 982,
      "])": 983,
      "507": 984,
      "Manager": 985,
      "test": 986,
      "Ġback": 987,
      "ault": 988,
      "cse": 989,
      "line": 990,
      "cuhk": 991,
      "='": 992,
      "09": 993,
      "io": 994,
      "Ġcre": 995,
      "Ġclass": 996,
      "5070": 997,
      "ner": 998,
      "Ġgr": 999,
      "36": 1000,
      "Ġhelp": 1001,
      "06": 1002,
      "co": 1003,
      "py": 1004,
      "Ġstart": 1005,
      "ious": 1006,
      "ceived": 1007,
      "Ġpeople": 1008,
      "auth": 1009,
      "ĠWe": 1010,
      "====": 1011,
      "ON": 1012,
      "itor": 1013,
      "28": 1014,
      "Ġmake": 1015,
      "mer": 1016,
      "ures": 1017,
      "pos": 1018,
      "/<": 1019,
      "stem": 1020,
      "Ġshe": 1021,
      "Ġco": 1022,
      "round": 1023,
      "Ġatt": 1024,
      "uid": 1025,
      "37": 1026,
      "Ex": 1027,
      ".<": 1028,
      "client": 1029,
      "ape": 1030,
      "Ġunder": 1031,
      "Ġ%": 1032,
      "not": 1033,
      "Ġshould": 1034,
      "04": 1035,
      "ĠâĢĵ": 1036,
      "ession": 1037,
      "assert": 1038,
      "rror": 1039,
      "Ġknow": 1040,
      "Ġpar": 1041,
      "urre": 1042,
      "nx": 1043,
      "Ġprov": 1044,
      "ng": 1045,
      "day": 1046,
      "ys": 1047,
      "ĉĉ": 1048,
      "Ġ15": 1049,
      "its": 1050,
      "32": 1051,
      "orum": 1052,
      "69": 1053,
      "Pro": 1054,
      "http": 1055,
      "None": 1056,
      "Ġreg": 1057,
      "ĠCon": 1058,
      "Ġinclud": 1059,
      "Ġassert": 1060,
      "ubl": 1061,
      "ĠHe": 1062,
      "Ġint": 1063,
      "ator": 1064,
      "ek": 1065,
      "lib": 1066,
      "rit": 1067,
      "ams": 1068,
      "ull": 1069,
      "Ġlook": 1070,
      "lock": 1071,
      "essage": 1072,
      "Ġ)": 1073,
      "Cnx": 1074,
      "ames": 1075,
      "Ġ`": 1076,
      "Ġ29": 1077,
      "date": 1078,
      "Ġsub": 1079,
      "59": 1080,
      "num": 1081,
      "Quorum": 1082,
      "Ġcall": 1083,
      "ough": 1084,
      "Error": 1085,
      "dict": 1086,
      "Ġspec": 1087,
      "als": 1088,
      "Ġloc": 1089,
      "irect": 1090,
      "ank": 1091,
      "Ġsup": 1092,
      "Ġbr": 1093,
      "Ġwant": 1094,
      "Ġcal": 1095,
      "Ġtwo": 1096,
      "Ġwor": 1097,
      "ĠWAR": 1098,
      "rome": 1099,
      "Ġmost": 1100,
      "word": 1101,
      "ribut": 1102,
      "Ġevery": 1103,
      "Ġafter": 1104,
      "ics": 1105,
      "count": 1106,
      "ood": 1107,
      "import": 1108,
      "Ġstate": 1109,
      "21": 1110,
      "ĠĊ": 1111,
      "ities": 1112,
      "Ġprodu": 1113,
      "tern": 1114,
      "air": 1115,
      "Ġrem": 1116,
      "Ġresult": 1117,
      "ting": 1118,
      "ily": 1119,
      "load": 1120,
      "Ġph": 1121,
      "Ġrel": 1122,
      "son": 1123,
      "ph": 1124,
      "105": 1125,
      "Ġstatus": 1126,
      "Ġ9": 1127,
      "host": 1128,
      "ĠUn": 1129,
      "Ġdif": 1130,
      "Ġfil": 1131,
      "Ġi": 1132,
      "ible": 1133,
      "ert": 1134,
      "erson": 1135,
      ":<": 1136,
      "Ġthese": 1137,
      "ash": 1138,
      "Ġent": 1139,
      "ST": 1140,
      "af": 1141,
      "Ġpos": 1142,
      "Ġbec": 1143,
      "ward": 1144,
      "ower": 1145,
      "CnxManager": 1146,
      "QuorumCnxManager": 1147,
      "Ġwell": 1148,
      "True": 1149,
      "Ġ11": 1150,
      "ason": 1151,
      "etwork": 1152,
      "ments": 1153,
      "Jan": 1154,
      "Ġplay": 1155,
      "sg": 1156,
      "39": 1157,
      "47": 1158,
      "ĠWARN": 1159,
      "fore": 1160,
      "ility": 1161,
      "der": 1162,
      "server": 1163,
      "ok": 1164,
      "ages": 1165,
      "45": 1166,
      "Re": 1167,
      "qual": 1168,
      "Ġcould": 1169,
      "ray": 1170,
      "ĠIf": 1171,
      "38": 1172,
      "Ġrun": 1173,
      "amp": 1174,
      "...": 1175,
      "hent": 1176,
      "Ġmany": 1177,
      "cont": 1178,
      "Ġthen": 1179,
      "Ġchrome": 1180,
      "abel": 1181,
      "endWorker": 1182,
      "www": 1183,
      "ger": 1184,
      "Ġend": 1185,
      "Ġused": 1186,
      "Ġnow": 1187,
      "ense": 1188,
      "ethod": 1189,
      "Ġwhile": 1190,
      "Ġchild": 1191,
      "list": 1192,
      "value": 1193,
      "AT": 1194,
      "emory": 1195,
      "Ġfin": 1196,
      "Ġvalue": 1197,
      "Ġsee": 1198,
      "urrent": 1199,
      "ular": 1200,
      "Ġwhere": 1201,
      "Ġcons": 1202,
      "OR": 1203,
      "Ġerror": 1204,
      "[\"": 1205,
      "ased": 1206,
      "Ġright": 1207,
      "wn": 1208,
      "ponse": 1209,
      "Ġ@": 1210,
      "Ġcheck": 1211,
      "53": 1212,
      "size": 1213,
      ">:": 1214,
      "Ġtrans": 1215,
      "48": 1216,
      "Ġdown": 1217,
      "Ġfun": 1218,
      "uch": 1219,
      "000": 1220,
      "ĠYou": 1221,
      "ational": 1222,
      "ble": 1223,
      "Ġfile": 1224,
      "Ġread": 1225,
      "Ġnp": 1226,
      "Ġhigh": 1227,
      "ement": 1228,
      "Ġeven": 1229,
      "Ġauthent": 1230,
      "Ġvery": 1231,
      "illed": 1232,
      "Ġway": 1233,
      "Ġbl": 1234,
      "Ġpol": 1235,
      "Ġsm": 1236,
      "Ġrequest": 1237,
      "Ġhim": 1238,
      "Ġyears": 1239,
      "Ġtype": 1240,
      "//": 1241,
      "ts": 1242,
      "Ġfl": 1243,
      "aph": 1244,
      "Ġgood": 1245,
      "Ġ12": 1246,
      "ature": 1247,
      "ĠĠĠĠĠĠĠĠĠĠĠĠĠĠĠĠĠĠĠĠĠĠĠ": 1248,
      "Ġprint": 1249,
      "formation": 1250,
      "ann": 1251,
      "time": 1252,
      "Ġinv": 1253,
      "olog": 1254,
      "ĠPro": 1255,
      "Ġ04": 1256,
      "alth": 1257,
      "Rec": 1258,
      "etime": 1259,
      "ĠCom": 1260,
      "Ġkey": 1261,
      "Ġauth": 1262,
      "58": 1263,
      "Ġbecause": 1264,
      "virt": 1265,
      "202": 1266,
      "Ġport": 1267,
      "Ġlong": 1268,
      "Ġ&": 1269,
      "aking": 1270,
      "Ġass": 1271,
      "ative": 1272,
      "other": 1273,
      "ier": 1274,
      "||": 1275,
      "Ġsent": 1276,
      "Ġ>": 1277,
      "uring": 1278,
      "version": 1279,
      "Ġauthentication": 1280,
      "Ġmin": 1281,
      "Ġweb": 1282,
      "Ġlast": 1283,
      "ari": 1284,
      "md": 1285,
      "Ġdid": 1286,
      "Ġdon": 1287,
      "ized": 1288,
      "Ġfound": 1289,
      "iness": 1290,
      "ĠWh": 1291,
      "Ġstud": 1292,
      "EN": 1293,
      "dd": 1294,
      "led": 1295,
      "50": 1296,
      "ait": 1297,
      "Ġmodel": 1298,
      "met": 1299,
      "html": 1300,
      "Ġbo": 1301,
      "ils": 1302,
      "ample": 1303,
      "ired": 1304,
      "Ġexist": 1305,
      "ĠAr": 1306,
      "\"\"\"": 1307,
      "ee": 1308,
      "Ġ13": 1309,
      "instance": 1310,
      "ĠEx": 1311,
      "Ser": 1312,
      "40": 1313,
      "unix": 1314,
      "ule": 1315,
      "Ġ__": 1316,
      "Ġbefore": 1317,
      "und": 1318,
      "Ġarg": 1319,
      "lob": 1320,
      "param": 1321,
      "Ġfind": 1322,
      "Ġclose": 1323,
      "ited": 1324,
      "az": 1325,
      "----------------": 1326,
      "'),": 1327,
      "Ġhand": 1328,
      "root": 1329,
      "56": 1330,
      ".âĢĿ": 1331,
      "arn": 1332,
      "imes": 1333,
      "Ġshow": 1334,
      "ific": 1335,
      "ollow": 1336,
      "Ġexp": 1337,
      "Ġhere": 1338,
      "Ġsuch": 1339,
      "Ġav": 1340,
      "SC": 1341,
      "alk": 1342,
      "Ġexper": 1343,
      "riv": 1344,
      "33": 1345,
      "arch": 1346,
      "Ġ21": 1347,
      "fil": 1348,
      "Ġ$": 1349,
      "Ġtry": 1350,
      "Ġform": 1351,
      "ets": 1352,
      "gan": 1353,
      "Ġmon": 1354,
      "Ġmod": 1355,
      "ines": 1356,
      "ght": 1357,
      "Ġgreat": 1358,
      "ript": 1359,
      "Ġdec": 1360,
      "config": 1361,
      "54": 1362,
      "ery": 1363,
      "Ġaw": 1364,
      "Ġdiffer": 1365,
      "vent": 1366,
      "ience": 1367,
      "Ġ257": 1368,
      "col": 1369,
      "Ġ->": 1370,
      "Data": 1371,
      "cal": 1372,
      "uct": 1373,
      "ody": 1374,
      "ĠOut": 1375,
      "att": 1376,
      "ret": 1377,
      "we": 1378,
      "Ġreceived": 1379,
      "visitor": 1380,
      "requ": 1381,
      "hes": 1382,
      "Ġra": 1383,
      "Ġagain": 1384,
      "Ġmuch": 1385,
      "arget": 1386,
      "Ġbus": 1387,
      "Ġeach": 1388,
      "jo": 1389,
      "Ġcalvisitor": 1390,
      "ĠAnd": 1391,
      "Ġeff": 1392,
      "Ġthink": 1393,
      "rop": 1394,
      "Recv": 1395,
      "SendWorker": 1396,
      "model": 1397,
      "Ġuid": 1398,
      "RecvWorker": 1399,
      "{'": 1400,
      "Ġsim": 1401,
      "SE": 1402,
      "Ġ2931": 1403,
      "ken": 1404,
      "Ġbel": 1405,
      "ats": 1406,
      "Ġtake": 1407,
      "ever": 1408,
      "Ġperson": 1409,
      "ssh": 1410,
      "Ġdel": 1411,
      "sgi": 1412,
      "Ġday": 1413,
      "wsgi": 1414,
      "Ġinst": 1415,
      "Ġdr": 1416,
      "Ġfailure": 1417,
      "ĠTrue": 1418,
      "Ġeuid": 1419,
      "fr": 1420,
      "GET": 1421,
      "cord": 1422,
      "Ġ00": 1423,
      "ances": 1424,
      "eter": 1425,
      "Ġown": 1426,
      "dir": 1427,
      "ustom": 1428,
      "Ġsl": 1429,
      "0769": 1430,
      "Ġtty": 1431,
      "Ġbeing": 1432,
      "Ġman": 1433,
      "aining": 1434,
      "een": 1435,
      "resent": 1436,
      "rc": 1437,
      "Ġlogname": 1438,
      "Ġruser": 1439,
      "Ġrhost": 1440,
      "ik": 1441,
      "Ġauthor": 1442,
      "by": 1443,
      "fl": 1444,
      "back": 1445,
      "Ġ14": 1446,
      "LE": 1447,
      "Ġgener": 1448,
      "ĠFalse": 1449,
      "ĠAn": 1450,
      "idd": 1451,
      "Ġinformation": 1452,
      "Ġroot": 1453,
      "odes": 1454,
      "ale": 1455,
      "Ġconnection": 1456,
      "red": 1457,
      "ĠAl": 1458,
      "\"]": 1459,
      "Ġthose": 1460,
      "Ġcount": 1461,
      "ually": 1462,
      "aving": 1463,
      "ĠSh": 1464,
      "ential": 1465,
      "Ġmade": 1466,
      "httpd": 1467,
      "Ġmessage": 1468,
      "Ġgu": 1469,
      "ĠĠĠĠĠĠĠĠĠĠĠĠĠĠĠĠĠĠĠĠĠĠĠĠ": 1470,
      "opy": 1471,
      "DE": 1472,
      "for": 1473,
      ".\"": 1474,
      "76": 1475,
      "format": 1476,
      "41": 1477,
      "Ġmark": 1478,
      "://": 1479,
      "len": 1480,
      "Ġsecond": 1481,
      "Ch": 1482,
      "Ġmust": 1483,
      "Ġbest": 1484,
      "man": 1485,
      "Ġcomple": 1486,
      "Ġweek": 1487,
      "ĠNew": 1488,
      "iver": 1489,
      "42": 1490,
      "AM": 1491,
      "Ġ03": 1492,
      "ublic": 1493,
      "elect": 1494,
      "ren": 1495,
      "'},": 1496,
      "Ġhead": 1497,
      "52": 1498,
      "ument": 1499,
      "ins": 1500,
      "ider": 1501,
      "Cl": 1502,
      "yp": 1503,
      "Ġsign": 1504,
      "view": 1505,
      "Ġfr": 1506,
      "ensor": 1507,
      "ĠMemory": 1508,
      "Ġnetwork": 1509,
      "Ġdist": 1510,
      "ness": 1511,
      "Ġpoint": 1512,
      "âĢľ": 1513,
      "UID": 1514,
      "Ġfollow": 1515,
      "Ġsystem": 1516,
      "Ġsom": 1517,
      "ĠCl": 1518,
      "ories": 1519,
      "ccess": 1520,
      "Ġtot": 1521,
      "Ġsupport": 1522,
      "ars": 1523,
      "ton": 1524,
      "Ġnumber": 1525,
      "Ġworld": 1526,
      "AN": 1527,
      "IT": 1528,
      "Ġclient": 1529,
      "sy": 1530,
      "ptional": 1531,
      "info": 1532,
      "Ġsur": 1533,
      "chool": 1534,
      "99": 1535,
      "gle": 1536,
      "ince": 1537,
      "Ġsame": 1538,
      "olut": 1539,
      "Ġ.": 1540,
      "Ġchar": 1541,
      "Ġsk": 1542,
      "ailed": 1543,
      "state": 1544,
      "append": 1545,
      "ems": 1546,
      "ather": 1547,
      "ah": 1548,
      "Ġapp": 1549,
      "ters": 1550,
      "Al": 1551,
      "apt": 1552,
      "UUID": 1553,
      "atic": 1554,
      "umn": 1555,
      "ouse": 1556,
      "Ġfam": 1557,
      "44": 1558,
      "keep": 1559,
      "url": 1560,
      ">/": 1561,
      "ĠKilled": 1562,
      "67": 1563,
      ">##": 1564,
      "Ġcor": 1565,
      "ved": 1566,
      "ify": 1567,
      "Ġhome": 1568,
      "0000": 1569,
      "the": 1570,
      "comm": 1571,
      "pected": 1572,
      "Ġimage": 1573,
      "lease": 1574,
      "ĠAp": 1575,
      "Con": 1576,
      "indow": 1577,
      "Ġmed": 1578,
      "etween": 1579,
      "ives": 1580,
      "Ġ23": 1581,
      "Ġwr": 1582,
      "ember": 1583,
      "ptions": 1584,
      "Ġ22": 1585,
      "cent": 1586,
      "vices": 1587,
      "ailable": 1588,
      "():": 1589,
      "It": 1590,
      "gram": 1591,
      "ĠBut": 1592,
      "([": 1593,
      "AL": 1594,
      "ĠĠĠĠĠĠ": 1595,
      "Ġbusiness": 1596,
      "Ġlife": 1597,
      "akes": 1598,
      "Ġgroup": 1599,
      "Ġproduct": 1600,
      "':{'": 1601,
      "2026": 1602,
      "Ġcle": 1603,
      "come": 1604,
      ",\"": 1605,
      "ified": 1606,
      "Ġlead": 1607,
      "ware": 1608,
      "action": 1609,
      "Ġvis": 1610,
      "Ġtop": 1611,
      "Ġlifetime": 1612,
      "ĠFor": 1613,
      "We": 1614,
      "Ġos": 1615,
      "__(": 1616,
      "False": 1617,
      "Ġdep": 1618,
      "velop": 1619,
      "chn": 1620,
      "Ġart": 1621,
      "index": 1622,
      "Ġstill": 1623,
      "ey": 1624,
      "ception": 1625,
      "Ġdevelop": 1626,
      "Equal": 1627,
      "ĠKB": 1628,
      "ateg": 1629,
      "base": 1630,
      "valid": 1631,
      "Ġpassword": 1632,
      "Ġtotal": 1633,
      "ister": 1634,
      "This": 1635,
      "Ġraise": 1636,
      "Ġcurrent": 1637,
      "ecut": 1638,
      "Ġinput": 1639,
      "Ġbetween": 1640,
      "Ġusing": 1641,
      "loy": 1642,
      "IC": 1643,
      "Ġreal": 1644,
      "ries": 1645,
      "ĠHTTPS": 1646,
      "Ġpost": 1647,
      "Nov": 1648,
      "Ġreally": 1649,
      "Ġaround": 1650,
      "Ġboth": 1651,
      "reg": 1652,
      "Ġgoing": 1653,
      "code": 1654,
      "Ġdirect": 1655,
      "apple": 1656,
      "que": 1657,
      "Ġdifferent": 1658,
      "lect": 1659,
      "Ġdefault": 1660,
      "AS": 1661,
      "esc": 1662,
      "els": 1663,
      "51": 1664,
      "perty": 1665,
      "Ġoper": 1666,
      "wargs": 1667,
      "Ġcar": 1668,
      "bers": 1669,
      "work": 1670,
      "PU": 1671,
      ",âĢĿ": 1672,
      "Ġservice": 1673,
      "arm": 1674,
      "Ġrep": 1675,
      "arent": 1676,
      "Ġline": 1677,
      "land": 1678,
      "Ġlo": 1679,
      "IO": 1680,
      "less": 1681,
      "Ġcontin": 1682,
      "uck": 1683,
      "Ġdesign": 1684,
      "ished": 1685,
      "ivers": 1686,
      "Ġbro": 1687,
      "servers": 1688,
      "detail": 1689,
      "##<": 1690,
      ">]": 1691,
      "Ġplace": 1692,
      "ler": 1693,
      "Ġ|": 1694,
      "cul": 1695,
      "Ġprovid": 1696,
      "Ġappl": 1697,
      "of": 1698,
      "rid": 1699,
      "Wh": 1700,
      "80": 1701,
      "thon": 1702,
      "ote": 1703,
      "Ġbook": 1704,
      "riend": 1705,
      "osapi": 1706,
      "Ġcour": 1707,
      "me": 1708,
      "ident": 1709,
      "ways": 1710,
      "igin": 1711,
      "ric": 1712,
      "shape": 1713,
      "Ġnext": 1714,
      "ĠTr": 1715,
      "Ext": 1716,
      "Ġcare": 1717,
      "group": 1718,
      "ces": 1719,
      "Ġins": 1720,
      "loat": 1721,
      "Ġallow": 1722,
      "Ġsay": 1723,
      "################": 1724,
      "oci": 1725,
      "Ġobject": 1726,
      "Ġ2006": 1727,
      "========": 1728,
      "ids": 1729,
      "Ġbet": 1730,
      "Mac": 1731,
      "Ġbuild": 1732,
      "ross": 1733,
      "ription": 1734,
      "meric": 1735,
      "loc": 1736,
      "net": 1737,
      "Ġter": 1738,
      "ĠFailed": 1739,
      "Type": 1740,
      "assertEqual": 1741,
      "ists": 1742,
      "ants": 1743,
      "play": 1744,
      "ains": 1745,
      "::": 1746,
      "Ġrange": 1747,
      "ĠThey": 1748,
      "Book": 1749,
      "sed": 1750,
      "cle": 1751,
      "ĠFile": 1752,
      "Ġcommun": 1753,
      "sub": 1754,
      "ĠInter": 1755,
      "sshd": 1756,
      "aut": 1757,
      "Ġthree": 1758,
      "tract": 1759,
      "Ġpath": 1760,
      "rol": 1761,
      "inst": 1762,
      "eg": 1763,
      "63": 1764,
      "ection": 1765,
      "ittle": 1766,
      "Ġtoo": 1767,
      "sw": 1768,
      "ven": 1769,
      "Ġcustom": 1770,
      "Ġlevel": 1771,
      "Ġevent": 1772,
      "her": 1773,
      "ĠAs": 1774,
      "Server": 1775,
      "Ġkeep": 1776,
      "ared": 1777,
      "head": 1778,
      "ĠĠĠĠĠĠĠĠĠ": 1779,
      "reen": 1780,
      "Ġnode": 1781,
      "ling": 1782,
      "connect": 1783,
      "ship": 1784,
      "ety": 1785,
      "Ġbre": 1786,
      "Ġ{}": 1787,
      "ead": 1788,
      "label": 1789,
      "Ġmax": 1790,
      "cc": 1791,
      "ization": 1792,
      "tit": 1793,
      "Ġorder": 1794,
      "ream": 1795,
      "otal": 1796,
      "].": 1797,
      "Ġmet": 1798,
      "Ġhapp": 1799,
      "Ġworker": 1800,
      "mp": 1801,
      "Ġssh": 1802,
      "Ġeas": 1803,
      "gth": 1804,
      "Ġoutput": 1805,
      "Ġcr": 1806,
      "Ġfact": 1807,
      "Ġreport": 1808,
      "Ġfree": 1809,
      "Ġfew": 1810,
      "With": 1811,
      "Ġpur": 1812,
      "100": 1813,
      "aint": 1814,
      "ope": 1815,
      "Ġz": 1816,
      "File": 1817,
      "Ġext": 1818,
      "Ġtem": 1819,
      "ology": 1820,
      "Ġavailable": 1821,
      "ital": 1822,
      "Ġconfig": 1823,
      "Ġlocal": 1824,
      "Com": 1825,
      "start": 1826,
      "oogle": 1827,
      "Ġold": 1828,
      "thing": 1829,
      "</": 1830,
      "Ġwithout": 1831,
      "Ġhealth": 1832,
      "ott": 1833,
      "ights": 1834,
      "oud": 1835,
      "bin": 1836,
      "Ġproject": 1837,
      "point": 1838,
      "Ġfour": 1839,
      "output": 1840,
      "Ġpay": 1841,
      "ons": 1842,
      "orch": 1843,
      "ĠAmeric": 1844,
      "Ġlot": 1845,
      "Ġmethod": 1846,
      "ĠJan": 1847,
      "Ġfield": 1848,
      "Cont": 1849,
      "Ġduring": 1850,
      "oss": 1851,
      "vert": 1852,
      "ething": 1853,
      "Ġincre": 1854,
      "Ġfull": 1855,
      "ES": 1856,
      "rupt": 1857,
      "ma": 1858,
      "Ġindex": 1859,
      "Ġthings": 1860,
      "box": 1861,
      "wh": 1862,
      "ases": 1863,
      "Ġmonth": 1864,
      "Ġ[]": 1865,
      "Ġjob": 1866,
      "ped": 1867,
      "ced": 1868,
      "object": 1869,
      "230769": 1870,
      "86": 1871,
      "text": 1872,
      "my": 1873,
      "Ġht": 1874,
      "Ġpat": 1875,
      "Res": 1876,
      "ude": 1877,
      ")[": 1878,
      "icense": 1879,
      "Ġ('": 1880,
      "200": 1881,
      "Ġcent": 1882,
      "ush": 1883,
      "viron": 1884,
      "ification": 1885,
      "miss": 1886,
      "Ġdat": 1887,
      "Ġcreate": 1888,
      "TI": 1889,
      "Ġexcept": 1890,
      "Ġear": 1891,
      "Ġstand": 1892,
      "Ġgame": 1893,
      "max": 1894,
      "Ġappro": 1895,
      "ought": 1896,
      "Ġinstance": 1897,
      "Ġposs": 1898,
      "orn": 1899,
      "ĠSo": 1900,
      "board": 1901,
      "Ġlittle": 1902,
      "ging": 1903,
      "aim": 1904,
      "array": 1905,
      "Ġmat": 1906,
      "Ġsize": 1907,
      "trans": 1908,
      "Ġ}": 1909,
      "be": 1910,
      "uff": 1911,
      "ĠRes": 1912,
      "\">": 1913,
      "mb": 1914,
      "Ġ05": 1915,
      "Ġinit": 1916,
      "Ġ**": 1917,
      "lay": 1918,
      "Ġ02": 1919,
      "Ġteam": 1920,
      "fun": 1921,
      "field": 1922,
      "List": 1923,
      "Ġelif": 1924,
      "Ġgiv": 1925,
      "Ġpack": 1926,
      "ping": 1927,
      "request": 1928,
      "Ġput": 1929,
      "vern": 1930,
      "run": 1931,
      "wr": 1932,
      "Ġiss": 1933,
      "Ġtechn": 1934,
      "search": 1935,
      "Ġalways": 1936,
      "earch": 1937,
      "Ġ09": 1938,
      "Ġ30": 1939,
      ".,": 1940,
      "cp": 1941,
      "Ġfeel": 1942,
      "Ġinterest": 1943,
      "ision": 1944,
      "Ġpartic": 1945,
      "Ġsomething": 1946,
      "map": 1947,
      "inter": 1948,
      "ĠSer": 1949,
      "SD": 1950,
      "face": 1951,
      "imit": 1952,
      "ĠAll": 1953,
      "new": 1954,
      "ves": 1955,
      "93": 1956,
      "place": 1957,
      "ural": 1958,
      "MacBook": 1959,
      "dev": 1960,
      "ivity": 1961,
      "Ġcome": 1962,
      "ĠThere": 1963,
      "Ġanother": 1964,
      "ĠĠĠĠĠĠĠĠĠĠĠĠĠĠĠĠĠĠĠĠĠĠĠĠĠĠĠ": 1965,
      "ĠauthorMacBook": 1966,
      "Ġoffer": 1967,
      "med": 1968,
      "Ġperform": 1969,
      "df": 1970,
      "Ġlaw": 1971,
      "input": 1972,
      "Ġmarket": 1973,
      "Ġsmall": 1974,
      "aj": 1975,
      "ency": 1976,
      "Ġmight": 1977,
      "Ġpy": 1978,
      "RO": 1979,
      "....": 1980,
      "dat": 1981,
      "ured": 1982,
      "Ġpam": 1983,
      "Ġtimes": 1984,
      "Ġpower": 1985,
      "Ġsince": 1986,
      "Ġsuccess": 1987,
      "Ġbig": 1988,
      "Ġeffect": 1989,
      "Ġrecord": 1990,
      "ĠX": 1991,
      "Ġresponse": 1992,
      "Ġaccept": 1993,
      "ained": 1994,
      "ality": 1995,
      "Ġbetter": 1996,
      "Ġref": 1997,
      "Ġgot": 1998,
      "If": 1999,
      "Ġincluding": 2000,
      "pert": 2001,
      "AC": 2002,
      "Ġ01": 2003,
      "Ġ--": 2004,
      "Ġsw": 2005,
      "anged": 2006,
      "mda": 2007,
      "Ġlet": 2008,
      "443": 2009,
      "Ġask": 2010,
      "stand": 2011,
      "eters": 2012,
      "77": 2013,
      "ĠOn": 2014,
      "ension": 2015,
      "ĠBy": 2016,
      "En": 2017,
      "Ġcompany": 2018,
      "Ġdf": 2019,
      "Ġlove": 2020,
      "Ġschool": 2021,
      "por": 2022,
      "ĠInd": 2023,
      "Ġsession": 2024,
      "ior": 2025,
      "td": 2026,
      "Ġdict": 2027,
      "Ġplan": 2028,
      "ĠAt": 2029,
      "ĠCol": 2030,
      "idden": 2031,
      "uild": 2032,
      "Ġquest": 2033,
      "aff": 2034,
      "LSC": 2035,
      "ism": 2036,
      "raph": 2037,
      "aces": 2038,
      "Ġmov": 2039,
      "Ġfriend": 2040,
      "oh": 2041,
      "call": 2042,
      "attr": 2043,
      "Ġsrc": 2044,
      "ps": 2045,
      "preauth": 2046,
      "eturn": 2047,
      "ĠSc": 2048,
      "ename": 2049,
      "Ġ\\": 2050,
      "Ġcharact": 2051,
      "ending": 2052,
      "tings": 2053,
      "Ġsure": 2054,
      "Ġdesc": 2055,
      "gg": 2056,
      "Ġproble": 2057,
      "mod": 2058,
      "Ġide": 2059,
      "Ġspe": 2060,
      "Ġ183": 2061,
      "Ġblock": 2062,
      "ĠâĢĺ": 2063,
      "Ġdisc": 2064,
      "ĠShe": 2065,
      "atures": 2066,
      "Ġcost": 2067,
      "Ġhard": 2068,
      "Ġprogram": 2069,
      "Ġorgan": 2070,
      "resh": 2071,
      "Ġreason": 2072,
      "Ġbase": 2073,
      "oun": 2074,
      "alue": 2075,
      "span": 2076,
      "())": 2077,
      "Ġvari": 2078,
      "ples": 2079,
      "Ġnever": 2080,
      "ready": 2081,
      "rand": 2082,
      "icy": 2083,
      "Ġaction": 2084,
      "ĠConnection": 2085,
      "uss": 2086,
      "ately": 2087,
      "Ġfamily": 2088,
      "Ġwait": 2089,
      "ormal": 2090,
      "Ġview": 2091,
      "ĠHow": 2092,
      "Ġcase": 2093,
      "UT": 2094,
      "Ġmem": 2095,
      "Ġtri": 2096,
      "Ġ2013": 2097,
      "ability": 2098,
      "Ġleg": 2099,
      "kwargs": 2100,
      "Ġversion": 2101,
      "ags": 2102,
      "Ġprof": 2103,
      "ention": 2104,
      "ume": 2105,
      "Ġchange": 2106,
      "no": 2107,
      "ĠOr": 2108,
      "Ġsuper": 2109,
      "arning": 2110,
      "ING": 2111,
      "oday": 2112,
      "aring": 2113,
      "itional": 2114,
      "Ġhttp": 2115,
      "Ġed": 2116,
      "Ġtyp": 2117,
      "gy": 2118,
      "ĠNo": 2119,
      "ĠNov": 2120,
      "ync": 2121,
      "Ġur": 2122,
      "Ġest": 2123,
      "Cache": 2124,
      "itions": 2125,
      "join": 2126,
      "ĠQ": 2127,
      "ird": 2128,
      "Ġsing": 2129,
      "Ġwithin": 2130,
      "Ġaccess": 2131,
      "Ġcert": 2132,
      "ls": 2133,
      "omain": 2134,
      "oot": 2135,
      "Ġtarget": 2136,
      "result": 2137,
      "adata": 2138,
      "Name": 2139,
      "empt": 2140,
      "NO": 2141,
      "ically": 2142,
      ".__": 2143,
      "Ġdays": 2144,
      "218": 2145,
      "Ġgrow": 2146,
      "Ġrest": 2147,
      "ĠĠĠĠĊ": 2148,
      "ĠâĢĶ": 2149,
      "izer": 2150,
      "Ġfunction": 2151,
      "image": 2152,
      "Ġtext": 2153,
      "''": 2154,
      "np": 2155,
      "âĢĶ": 2156,
      "amb": 2157,
      "ral": 2158,
      "urs": 2159,
      "ences": 2160,
      "Ġmus": 2161,
      "ĠPh": 2162,
      "ration": 2163,
      "ĠAd": 2164,
      "ables": 2165,
      "âĢ¦": 2166,
      "IS": 2167,
      "Ġwater": 2168,
      "][": 2169,
      "json": 2170,
      "Ġagainst": 2171,
      "ĠZ": 2172,
      "db": 2173,
      "illion": 2174,
      "libvirt": 2175,
      "Ġturn": 2176,
      "162": 2177,
      "oney": 2178,
      "For": 2179,
      "Ġ06": 2180,
      "notice": 2181,
      "ours": 2182,
      "oring": 2183,
      "Ġunt": 2184,
      "ources": 2185,
      "rem": 2186,
      "aster": 2187,
      "Ġwom": 2188,
      "Ġword": 2189,
      "ĠSe": 2190,
      "let": 2191,
      "perties": 2192,
      "isk": 2193,
      "To": 2194,
      "220": 2195,
      "Ġimportant": 2196,
      "Ġ+=": 2197,
      "right": 2198,
      "Ġappe": 2199,
      "ulum": 2200,
      "=<": 2201,
      "(),": 2202,
      "Ġpop": 2203,
      "ivid": 2204,
      "Ġgive": 2205,
      "Ġless": 2206,
      "ored": 2207,
      "98": 2208,
      "process": 2209,
      "org": 2210,
      "dim": 2211,
      "Ġpresent": 2212,
      "ĠIs": 2213,
      "iversity": 2214,
      "Ġdoc": 2215,
      "Ġconsider": 2216,
      "ED": 2217,
      "Ġpublic": 2218,
      "arge": 2219,
      "etc": 2220,
      "ply": 2221,
      "with": 2222,
      "ron": 2223,
      "utils": 2224,
      "Ġexperience": 2225,
      "ique": 2226,
      "Ġsays": 2227,
      "ĠInterrupt": 2228,
      "Ġhum": 2229,
      "ards": 2230,
      "Ġexpl": 2231,
      "default": 2232,
      "Ġexpected": 2233,
      "Ġhist": 2234,
      "uture": 2235,
      "press": 2236,
      "78": 2237,
      "culate": 2238,
      "Ġair": 2239,
      "pk": 2240,
      "ither": 2241,
      "ference": 2242,
      "Ġwrit": 2243,
      "roll": 2244,
      "Ġleft": 2245,
      "Ġable": 2246,
      "ĠReceived": 2247,
      "Ġinvest": 2248,
      "Ġconf": 2249,
      "instances": 2250,
      "Ġmult": 2251,
      "Ġbeh": 2252,
      "check": 2253,
      "site": 2254,
      "pam": 2255,
      "ĠOptional": 2256,
      "EL": 2257,
      "Ġ25": 2258,
      "Ġaddress": 2259,
      "fe": 2260,
      "ftware": 2261,
      "Cal": 2262,
      "iter": 2263,
      "Ġprovide": 2264,
      "Ġargs": 2265,
      "gin": 2266,
      "ĠTo": 2267,
      "fix": 2268,
      "aps": 2269,
      "You": 2270,
      "ended": 2271,
      "Web": 2272,
      "Ġlink": 2273,
      "\".": 2274,
      "rist": 2275,
      "ably": 2276,
      "Ġdem": 2277,
      "Ġprot": 2278,
      "Ġ{'": 2279,
      "elet": 2280,
      "arr": 2281,
      "duct": 2282,
      "ĠBl": 2283,
      "plit": 2284,
      "vironment": 2285,
      "ium": 2286,
      "ribute": 2287,
      "AP": 2288,
      "itch": 2289,
      "Ġstep": 2290,
      "ĠDec": 2291,
      "ering": 2292,
      "record": 2293,
      "return": 2294,
      "hether": 2295,
      "Ġbody": 2296,
      "Test": 2297,
      "Ġlay": 2298,
      "ined": 2299,
      "An": 2300,
      "acy": 2301,
      "'],": 2302,
      "way": 2303,
      "Ġaff": 2304,
      "Ġselect": 2305,
      "Ġenc": 2306,
      "Ġcontent": 2307,
      "olution": 2308,
      "Ġ07": 2309,
      "prod": 2310,
      "ocial": 2311,
      "use": 2312,
      "Ġconnect": 2313,
      "off": 2314,
      "Ġexc": 2315,
      "ĠCan": 2316,
      "annel": 2317,
      "Ġnon": 2318,
      "ulumi": 2319,
      "Ġalready": 2320,
      "open": 2321,
      "method": 2322,
      "pes": 2323,
      "Ġcond": 2324,
      "print": 2325,
      "ises": 2326,
      "ideo": 2327,
      "ystem": 2328,
      "ently": 2329,
      "ten": 2330,
      "status": 2331,
      "update": 2332,
      "At": 2333,
      "Ġeng": 2334,
      "itut": 2335,
      "****": 2336,
      "Ġgiven": 2337,
      "Ġfiles": 2338,
      "Up": 2339,
      "Ġfollowing": 2340,
      "Ġinclude": 2341,
      "outh": 2342,
      "over": 2343,
      "Ġseason": 2344,
      "As": 2345,
      "Ġcalled": 2346,
      "ops": 2347,
      "Ġwin": 2348,
      "ots": 2349,
      "/_": 2350,
      "iving": 2351,
      "create": 2352,
      "Ġche": 2353,
      "tra": 2354,
      "tx": 2355,
      "Ġ24": 2356,
      "Ġaccount": 2357,
      "Ġsit": 2358,
      "valu": 2359,
      "struct": 2360,
      "Ġspecial": 2361,
      "imag": 2362,
      "``": 2363,
      "Ġonline": 2364,
      "Ġtask": 2365,
      "used": 2366,
      "ches": 2367,
      "Ġemp": 2368,
      "mit": 2369,
      "178": 2370,
      "Detail": 2371,
      "Ġuntil": 2372,
      "Ġshort": 2373,
      "mark": 2374,
      "Ġtalk": 2375,
      "Ġmeet": 2376,
      "'re": 2377,
      "sum": 2378,
      "vious": 2379,
      "UR": 2380,
      "Ġmanag": 2381,
      "urity": 2382,
      "Stand": 2383,
      "Ġtoday": 2384,
      "ĠThat": 2385,
      "pc": 2386,
      "node": 2387,
      "Ġcreat": 2388,
      "Ġarea": 2389,
      "Ġdri": 2390,
      "Ġhost": 2391,
      "ands": 2392,
      "Today": 2393,
      "ĠPl": 2394,
      "nam": 2395,
      ">,": 2396,
      "Ġgovern": 2397,
      "oice": 2398,
      "Ġworking": 2399,
      "Ġ100": 2400,
      "side": 2401,
      "pond": 2402,
      "icle": 2403,
      "Ġaway": 2404,
      "Ġdest": 2405,
      "ieve": 2406,
      "Ġphot": 2407,
      "Ġservices": 2408,
      "ift": 2409,
      "Ġlabel": 2410,
      "Ġsever": 2411,
      "number": 2412,
      "Ġident": 2413,
      "ĠNot": 2414,
      "lobal": 2415,
      "Ġ25749": 2416,
      "Tr": 2417,
      "angu": 2418,
      "Ġpres": 2419,
      "ĠWhen": 2420,
      "ially": 2421,
      "anges": 2422,
      "Ġcap": 2423,
      "LO": 2424,
      "Ġtold": 2425,
      "Ġ!": 2426,
      "Ġadv": 2427,
      ">>": 2428,
      "((": 2429,
      "ury": 2430,
      "'.": 2431,
      "yle": 2432,
      "Ġorigin": 2433,
      "ainer": 2434,
      "Ġvalues": 2435,
      "iod": 2436,
      "Ġparam": 2437,
      "65": 2438,
      "ged": 2439,
      "Ġkind": 2440,
      "Ġdi": 2441,
      "cast": 2442,
      "87": 2443,
      "thers": 2444,
      "ibr": 2445,
      "Ġlight": 2446,
      "Ġ08": 2447,
      "AD": 2448,
      "ĠFeb": 2449,
      "icro": 2450,
      "Ġax": 2451,
      "Ġvar": 2452,
      "Ġmaking": 2453,
      "Ġpast": 2454,
      "ively": 2455,
      "Ġ...": 2456,
      "itive": 2457,
      "Ġbit": 2458,
      "types": 2459,
      "Ġve": 2460,
      "orage": 2461,
      "Ġfood": 2462,
      "fg": 2463,
      "da": 2464,
      "SI": 2465,
      "Ġ['": 2466,
      "Ġsal": 2467,
      "ched": 2468,
      "lish": 2469,
      "Ġthing": 2470,
      "ina": 2471,
      "Ġben": 2472,
      "parse": 2473,
      "ĠJun": 2474,
      "imagec": 2475,
      "Ġmain": 2476,
      "ĠBe": 2477,
      "Ġchildren": 2478,
      "Ġdetail": 2479,
      "kn": 2480,
      "Total": 2481,
      "aly": 2482,
      "down": 2483,
      "oper": 2484,
      "ised": 2485,
      "ĠJul": 2486,
      "Ġdevice": 2487,
      "Ġalong": 2488,
      "Ġdone": 2489,
      "Ġann": 2490,
      "fect": 2491,
      "lection": 2492,
      "tils": 2493,
      "Ġresults": 2494,
      "Ġmean": 2495,
      "calculate": 2496,
      "Ġmove": 2497,
      "PT": 2498,
      "rivate": 2499,
      "Ġ26": 2500,
      "Ġroom": 2501,
      "isco": 2502,
      "Ġbas": 2503,
      "write": 2504,
      "Ġstudents": 2505,
      "imagecache": 2506,
      "Ġenough": 2507,
      "orth": 2508,
      "Ġrequired": 2509,
      "Ġthought": 2510,
      "Ġcover": 2511,
      "Ġtorch": 2512,
      "imal": 2513,
      "dep": 2514,
      "Ġsol": 2515,
      "Ġscore": 2516,
      "Ġcourse": 2517,
      "Ġlooking": 2518,
      "Ġtable": 2519,
      "Ġresearch": 2520,
      "ĠĠĠĠĠĠĠĠĠĠĠĠĠĠĠĠĠĠĠĠĠĠĠĠĠĠĠĠĠĠĠĠĠĠĠĠĠĠĠĠĠĠĠĠĠĠĠĠĠĠĠĠĠĠĠĠĠĠĠĠĠĠĠĠ": 2521,
      "sa": 2522,
      "aterial": 2523,
      "Ġcontrol": 2524,
      "ĠLicense": 2525,
      "Ġwhy": 2526,
      "Sun": 2527,
      "95": 2528,
      "Ġvol": 2529,
      "Ġpract": 2530,
      "Id": 2531,
      "160": 2532,
      "ney": 2533,
      "uration": 2534,
      "AG": 2535,
      "Ġpage": 2536,
      "titude": 2537,
      "ohn": 2538,
      "62": 2539,
      "Ġcopy": 2540,
      "aset": 2541,
      "Ġsite": 2542,
      "flow": 2543,
      "bl": 2544,
      "Ġmiss": 2545,
      "Ġsum": 2546,
      "Ġopt": 2547,
      "ĠFr": 2548,
      "ires": 2549,
      "ted": 2550,
      "ĠSp": 2551,
      "Ġpress": 2552,
      "Ġbased": 2553,
      "afe": 2554,
      "ife": 2555,
      "Ġisinstance": 2556,
      "gress": 2557,
      "dec": 2558,
      "Ġacc": 2559,
      "SPU": 2560,
      "rect": 2561,
      "ĠRo": 2562,
      "SPUtils": 2563,
      "Ġbreak": 2564,
      "alf": 2565,
      "Ġhaving": 2566,
      "Ar": 2567,
      "ĠUS": 2568,
      "Ġside": 2569,
      "Ġgl": 2570,
      "Steps": 2571,
      "sl": 2572,
      "Ġprom": 2573,
      "uple": 2574,
      "conom": 2575,
      "Ġnight": 2576,
      "ĠĠĠĠĠĠĠĠĠĠĠĠĠĠĠĠĠĠĠĠĠĠĠĠĠĠĠĠĠĠĠ": 2577,
      "Ġfar": 2578,
      "string": 2579,
      "ges": 2580,
      "Ġdidn": 2581,
      "Ġresource": 2582,
      "ley": 2583,
      "Ġmoney": 2584,
      "Ġimpro": 2585,
      "Ġcode": 2586,
      "eep": 2587,
      "raw": 2588,
      "SDM": 2589,
      "unch": 2590,
      "Ġnear": 2591,
      "level": 2592,
      "Ġmen": 2593,
      "Ġexample": 2594,
      "Ġunderstand": 2595,
      "Ġtoget": 2596,
      "Ġemail": 2597,
      "Ġ28": 2598,
      "Ġtell": 2599,
      "plement": 2600,
      "ump": 2601,
      "Add": 2602,
      "ĠMB": 2603,
      "Ġtogether": 2604,
      "mat": 2605,
      ".\"\"\"": 2606,
      "Calories": 2607,
      "idth": 2608,
      "cording": 2609,
      "Ġver": 2610,
      "ilt": 2611,
      "He": 2612,
      "60": 2613,
      "Ġlearn": 2614,
      "Altitude": 2615,
      "comp": 2616,
      "Env": 2617,
      "DetailSteps": 2618,
      "TodayTotal": 2619,
      "TodayTotalDetailSteps": 2620,
      "Ġpossible": 2621,
      "Ġdoesn": 2622,
      "Ġtook": 2623,
      "ExtSDM": 2624,
      "WithCache": 2625,
      "Ġthread": 2626,
      "block": 2627,
      "ajor": 2628,
      "ividual": 2629,
      "Ġoften": 2630,
      "().": 2631,
      "uments": 2632,
      "Ġemploy": 2633,
      "Field": 2634,
      "ĠCent": 2635,
      "ĠFound": 2636,
      "manager": 2637,
      "Ġfac": 2638,
      "Ġocc": 2639,
      "br": 2640,
      "ones": 2641,
      "Ġ``": 2642,
      "names": 2643,
      "--------------------------------": 2644,
      "enn": 2645,
      "Un": 2646,
      "tem": 2647,
      "Ġmeans": 2648,
      "most": 2649,
      "jang": 2650,
      "pons": 2651,
      "ĠTe": 2652,
      "Ġstat": 2653,
      "Ġcommunity": 2654,
      "ĠMar": 2655,
      "Ġspecific": 2656,
      "dis": 2657,
      "ising": 2658,
      "Ġever": 2659,
      "uro": 2660,
      "rel": 2661,
      "allen": 2662,
      "Ġtreat": 2663,
      "Ġlik": 2664,
      "joy": 2665,
      "Ġhold": 2666,
      "property": 2667,
      "batch": 2668,
      "ĠWith": 2669,
      "Ġexecut": 2670,
      "ules": 2671,
      "IL": 2672,
      "Par": 2673,
      "Ġstop": 2674,
      "Ġsource": 2675,
      "actory": 2676,
      "Ġjo": 2677,
      "ills": 2678,
      "ĠAct": 2679,
      "Str": 2680,
      "response": 2681,
      "metadata": 2682,
      "ograph": 2683,
      "Ġequ": 2684,
      "Ġua": 2685,
      "Ġleast": 2686,
      "models": 2687,
      "Ġhouse": 2688,
      "Ġindust": 2689,
      "Ġcut": 2690,
      "plic": 2691,
      "Ġmembers": 2692,
      "ators": 2693,
      "conf": 2694,
      "Ġcontinue": 2695,
      "'m": 2696,
      "atter": 2697,
      "Ġcountry": 2698,
      "ĠMay": 2699,
      "Ġneeds": 2700,
      "Ġcou": 2701,
      "ĠReturn": 2702,
      "anguage": 2703,
      "Mon": 2704,
      "ides": 2705,
      "Ġdeal": 2706,
      "ĠWhat": 2707,
      "Ġproducts": 2708,
      "Ġeither": 2709,
      "So": 2710,
      "ĠDis": 2711,
      "Ġign": 2712,
      "Ġstory": 2713,
      "ĠCo": 2714,
      "And": 2715,
      "Ġsingle": 2716,
      "Ġapplication": 2717,
      "Ġconc": 2718,
      "params": 2719,
      "Ġisn": 2720,
      "ĠPar": 2721,
      "order": 2722,
      "Ġ!=": 2723,
      "andler": 2724,
      "ols": 2725,
      "hip": 2726,
      "ĠNY": 2727,
      "!!": 2728,
      "mission": 2729,
      "spec": 2730,
      "records": 2731,
      "ai": 2732,
      "Ġinstall": 2733,
      "gs": 2734,
      "zip": 2735,
      "Ġbecome": 2736,
      "ref": 2737,
      "75": 2738,
      "ĠMy": 2739,
      "inc": 2740,
      "Ġoptions": 2741,
      "Ġvisit": 2742,
      "now": 2743,
      "pn": 2744,
      "float": 2745,
      "Ġtrad": 2746,
      "values": 2747,
      "92": 2748,
      "Ġmom": 2749,
      "Hi": 2750,
      "aper": 2751,
      "What": 2752,
      "Ġdate": 2753,
      "ĠUniversity": 2754,
      "UL": 2755,
      "Ġcame": 2756,
      "Ġmock": 2757,
      "Ġclosed": 2758,
      "ĠEng": 2759,
      "indows": 2760,
      "On": 2761,
      "fully": 2762,
      "ĠworkerEnv": 2763,
      "Ġrece": 2764,
      "ero": 2765,
      "Ġhowever": 2766,
      "Ġelect": 2767,
      "spf": 2768,
      "erc": 2769,
      "Ġlarge": 2770,
      "Ġload": 2771,
      "ternal": 2772,
      "Ġwent": 2773,
      "Ġminut": 2774,
      "Set": 2775,
      "Ġcertain": 2776,
      "abase": 2777,
      "Ġcomput": 2778,
      "Ġbuy": 2779,
      "ional": 2780,
      "ĠCont": 2781,
      "ane": 2782,
      "ĠChrist": 2783,
      "known": 2784,
      "ks": 2785,
      "target": 2786,
      "ination": 2787,
      "Ġmakes": 2788,
      "python": 2789,
      "'])": 2790,
      "Key": 2791,
      "68": 2792,
      "ctor": 2793,
      "Ġclear": 2794,
      "Ġpersonal": 2795,
      "Ġfore": 2796,
      "Ġprob": 2797,
      "ĠGod": 2798,
      "bed": 2799,
      "util": 2800,
      "ĠĠĠĠĠĠĠĠĠĠĠĠĠĠĠĠĠ": 2801,
      "Ġoffic": 2802,
      "AB": 2803,
      "message": 2804,
      "educ": 2805,
      "amples": 2806,
      "Ġstre": 2807,
      "device": 2808,
      "token": 2809,
      "Ġfoc": 2810,
      "EM": 2811,
      "leep": 2812,
      "Ġcolumn": 2813,
      "Ġsocial": 2814,
      "tim": 2815,
      "part": 2816,
      "Ġseconds": 2817,
      "CO": 2818,
      "Ġmil": 2819,
      "Ġdoing": 2820,
      "book": 2821,
      "Ġindividual": 2822,
      "Ġlow": 2823,
      "Ġpercent": 2824,
      "oll": 2825,
      "Ġstruct": 2826,
      "388": 2827,
      "Ġpubl": 2828,
      "Ġthough": 2829,
      "ients": 2830,
      "Ġnec": 2831,
      "duce": 2832,
      "]]": 2833,
      "Ġseveral": 2834,
      "Ġscript": 2835,
      "wards": 2836,
      "Ġparent": 2837,
      "Ġothers": 2838,
      "Ġpot": 2839,
      "Ġgetting": 2840,
      "ias": 2841,
      "room": 2842,
      "ridge": 2843,
      "Ġwaiting": 2844,
      "'ve": 2845,
      "Ġyet": 2846,
      "ze": 2847,
      "Ġcred": 2848,
      "Ġactually": 2849,
      "lex": 2850,
      "Ġ202": 2851,
      "avor": 2852,
      "Ġeasy": 2853,
      "pack": 2854,
      "rior": 2855,
      "Ġ27": 2856,
      "OT": 2857,
      "Ġmusic": 2858,
      "portun": 2859,
      "bs": 2860,
      "ĠAdd": 2861,
      "Ġrule": 2862,
      "ĠPr": 2863,
      "DEV": 2864,
      "Im": 2865,
      "imum": 2866,
      "obj": 2867,
      "Ġclean": 2868,
      "ĠLe": 2869,
      "Ġtit": 2870,
      "ony": 2871,
      "jango": 2872,
      "ĠJohn": 2873,
      "table": 2874,
      "97": 2875,
      "do": 2876,
      "Ġmajor": 2877,
      "Ġque": 2878,
      "Ġwon": 2879,
      "eline": 2880,
      "atest": 2881,
      "dtype": 2882,
      "Ġenvironment": 2883,
      "irt": 2884,
      "stack": 2885,
      "Ġspace": 2886,
      "Ġcharacter": 2887,
      "Ġyoung": 2888,
      "po": 2889,
      "Ġitem": 2890,
      "plate": 2891,
      "Ġlimit": 2892,
      "Ġbegin": 2893,
      "But": 2894,
      "NIO": 2895,
      "Log": 2896,
      "183": 2897,
      "Ġserver": 2898,
      "Ġfuture": 2899,
      "NIOServer": 2900,
      "Ġonce": 2901,
      "Ġquality": 2902,
      "doc": 2903,
      "Ġcore": 2904,
      "ĠDe": 2905,
      "desc": 2906,
      "Ġmatch": 2907,
      "mber": 2908,
      "Ġgovernment": 2909,
      "oid": 2910,
      "mon": 2911,
      "ĠAmerican": 2912,
      "Ġreview": 2913,
      "Ġer": 2914,
      "serv": 2915,
      "Ġwhether": 2916,
      "ado": 2917,
      "Ġsearch": 2918,
      "ulation": 2919,
      "Ġtraining": 2920,
      "length": 2921,
      "Ġacross": 2922,
      "Ġeduc": 2923,
      "Ġlive": 2924,
      "elt": 2925,
      "ama": 2926,
      "Ġstarted": 2927,
      "Ġnews": 2928,
      "Ġpick": 2929,
      "apping": 2930,
      "Ġbelow": 2931,
      "Ġens": 2932,
      "che": 2933,
      "nal": 2934,
      "top": 2935,
      "atform": 2936,
      "avel": 2937,
      "inal": 2938,
      "Ġlater": 2939,
      "su": 2940,
      "ux": 2941,
      "State": 2942,
      "=[": 2943,
      "fort": 2944,
      "ĠDo": 2945,
      "Ġleaving": 2946,
      "Ġprofession": 2947,
      "Ġdtype": 2948,
      "Ġmind": 2949,
      "aken": 2950,
      "ĠAc": 2951,
      "ĠDirect": 2952,
      "ered": 2953,
      "ĠQu": 2954,
      "Ġmillion": 2955,
      "ibility": 2956,
      "ounds": 2957,
      "There": 2958,
      "Ġhappen": 2959,
      "Ġparticular": 2960,
      "Ġeconom": 2961,
      "ĠĠĠĠĠĠĠĠĠĠĠĠĠ": 2962,
      "Fr": 2963,
      "Ġfailed": 2964,
      "Ġmodels": 2965,
      "Ġ},": 2966,
      "\"),": 2967,
      "opt": 2968,
      "ĠApple": 2969,
      "IG": 2970,
      "Group": 2971,
      "Ġenjoy": 2972,
      "Ġquick": 2973,
      "iff": 2974,
      "Ġvalid": 2975,
      "ĠBye": 2976,
      "idx": 2977,
      "Ġwebsite": 2978,
      "Ġbenef": 2979,
      "idence": 2980,
      "Ap": 2981,
      "[:": 2982,
      "ĠCar": 2983,
      "ogn": 2984,
      "ene": 2985,
      "ENT": 2986,
      "item": 2987,
      "eral": 2988,
      "Ġmaterial": 2989,
      "ĠState": 2990,
      "Ġdim": 2991,
      "Ġcamp": 2992,
      "stats": 2993,
      "Ġrequire": 2994,
      "Ph": 2995,
      "irm": 2996,
      "clo": 2997,
      "meta": 2998,
      "OS": 2999,
      "Ġcomes": 3000,
      "osp": 3001,
      "Ġadded": 3002,
      "96": 3003,
      "Ġdeb": 3004,
      "session": 3005,
      "script": 3006,
      "older": 3007,
      "Ġok": 3008,
      "ips": 3009,
      "Ġfund": 3010,
      "110": 3011,
      "ĠIm": 3012,
      "Ġopportun": 3013,
      "ounc": 3014,
      "urther": 3015,
      "Ġcontact": 3016,
      "Ġtax": 3017,
      "Ġrow": 3018,
      "sing": 3019,
      "Ġproblem": 3020,
      "Ġvideo": 3021,
      "Ġshape": 3022,
      "ĠOne": 3023,
      "Ġbroken": 3024,
      "Ġwomen": 3025,
      "Ġhours": 3026,
      "2181": 3027,
      "ĠÂ": 3028,
      "orld": 3029,
      "Ġrepe": 3030,
      "ached": 3031,
      "Ġtre": 3032,
      "Ġrepresent": 3033,
      "pkt": 3034,
      "pose": 3035,
      "Ġloss": 3036,
      "split": 3037,
      "Ġ,": 3038,
      "Ġupdate": 3039,
      "artment": 3040,
      "cs": 3041,
      "Ġwalk": 3042,
      "Ġstring": 3043,
      "ĠFl": 3044,
      "ender": 3045,
      "US": 3046,
      "hedul": 3047,
      "ued": 3048,
      "{}": 3049,
      "Ospf": 3050,
      "mun": 3051,
      "last": 3052,
      "Ġabove": 3053,
      "Ġcity": 3054,
      "ox": 3055,
      "Ġteach": 3056,
      "quest": 3057,
      "'ll": 3058,
      "ĠCal": 3059,
      "Ġhot": 3060,
      "ĠThese": 3061,
      "Ġcolor": 3062,
      "stant": 3063,
      "filename": 3064,
      "0769230769": 3065,
      "2307693": 3066,
      "07692307692307693": 3067,
      "Ġcollect": 3068,
      "Ġey": 3069,
      "Ġpoints": 3070,
      "Ġaud": 3071,
      "illa": 3072,
      "ds": 3073,
      "NODEV": 3074,
      "NODEVssh": 3075,
      "quence": 3076,
      "content": 3077,
      "Ġhuman": 3078,
      "3888": 3079,
      "li": 3080,
      "Ġabs": 3081,
      "Ġdevelopment": 3082,
      "Ġperiod": 3083,
      "================": 3084,
      "Ġearly": 3085,
      "192": 3086,
      "Ġcommon": 3087,
      "build": 3088,
      "link": 3089,
      "Ġactiv": 3090,
      "ians": 3091,
      "iple": 3092,
      "Ġpo": 3093,
      "go": 3094,
      "CT": 3095,
      "Ġ25746": 3096,
      "Ġtrue": 3097,
      "Ġ>>>": 3098,
      "66": 3099,
      "Ġamount": 3100,
      "column": 3101,
      "Ġhistory": 3102,
      "Ġprovided": 3103,
      "ceed": 3104,
      "options": 3105,
      "Ġbeaut": 3106,
      "140": 3107,
      "ibrary": 3108,
      "Ġfeatures": 3109,
      "Ġseries": 3110,
      "Ġ]": 3111,
      "ĠAss": 3112,
      "Ġknown": 3113,
      "Ġcell": 3114,
      "Ġdiff": 3115,
      "Ġfig": 3116,
      "Ġclaim": 3117,
      "Ġsix": 3118,
      "Ġnames": 3119,
      "ocket": 3120,
      "oose": 3121,
      "ĠValue": 3122,
      "context": 3123,
      "plication": 3124,
      "Ġinvol": 3125,
      "verage": 3126,
      "fact": 3127,
      "ilar": 3128,
      "Ġcomplete": 3129,
      "raft": 3130,
      "ĠEn": 3131,
      "Ġtf": 3132,
      "itted": 3133,
      "Ġnormal": 3134,
      "Ġcur": 3135,
      "Ġmonths": 3136,
      "Ġdrop": 3137,
      "Ġdet": 3138,
      "Ġansw": 3139,
      "Ġtrack": 3140,
      "ram": 3141,
      "ports": 3142,
      "body": 3143,
      "Ġfive": 3144,
      "query": 3145,
      "Not": 3146,
      "PO": 3147,
      "Ġqueue": 3148,
      "Ġrele": 3149,
      "ION": 3150,
      "ĠIntern": 3151,
      "Ġfloat": 3152,
      "Ġposition": 3153,
      "oz": 3154,
      "train": 3155,
      "Ġred": 3156,
      "stitut": 3157,
      "Ġrespons": 3158,
      "properties": 3159,
      "resource": 3160,
      "ison": 3161,
      "Ġstrong": 3162,
      "Ġpolit": 3163,
      "ilities": 3164,
      "rate": 3165,
      "Ġca": 3166,
      "Ġland": 3167,
      "Ġshare": 3168,
      "Ġtim": 3169,
      "Sh": 3170,
      "pol": 3171,
      "Ġcontext": 3172,
      "ief": 3173,
      "Ġbad": 3174,
      "Ġbring": 3175,
      "eta": 3176,
      "oding": 3177,
      "Ġcreated": 3178,
      "frame": 3179,
      "Ġes": 3180,
      "Ġgrad": 3181,
      "ements": 3182,
      "Ġprice": 3183,
      "ci": 3184,
      "Client": 3185,
      "nn": 3186,
      "Ġ(\"": 3187,
      "ĠUnited": 3188,
      "_<": 3189,
      "soft": 3190,
      "Ġstudy": 3191,
      "etch": 3192,
      "ĠMed": 3193,
      "ambda": 3194,
      "Ġfeature": 3195,
      "Ġsort": 3196,
      "posed": 3197,
      "Ġattempt": 3198,
      "Ġseen": 3199,
      "Kit": 3200,
      "ental": 3201,
      "Ġface": 3202,
      "Ġsys": 3203,
      "tensor": 3204,
      "lege": 3205,
      "ores": 3206,
      "Ġ2012": 3207,
      "Ġperfect": 3208,
      "Ġphys": 3209,
      "amer": 3210,
      "tpd": 3211,
      "Get": 3212,
      "labels": 3213,
      "gener": 3214,
      "step": 3215,
      "ĠTest": 3216,
      "icult": 3217,
      "rown": 3218,
      "90": 3219,
      "post": 3220,
      "Ġbox": 3221,
      "Factory": 3222,
      "oration": 3223,
      "source": 3224,
      "Ġinte": 3225,
      "Ġrout": 3226,
      "Ġurl": 3227,
      "ring": 3228,
      "BS": 3229,
      "Ġquestion": 3230,
      "Ġeverything": 3231,
      "CH": 3232,
      "ql": 3233,
      "Ġheart": 3234,
      "85": 3235,
      "google": 3236,
      "Ġdou": 3237,
      "Listener": 3238,
      "Ġmar": 3239,
      "Ġinitial": 3240,
      "Ġdistribut": 3241,
      "Ġpret": 3242,
      "pass": 3243,
      "âĢĵ": 3244,
      "ners": 3245,
      "ĠNYSE": 3246,
      "Ġhalf": 3247,
      "year": 3248,
      "oved": 3249,
      "ĠAN": 3250,
      "188": 3251,
      "elete": 3252,
      "yd": 3253,
      "Ġproperty": 3254,
      "Ġ1893": 3255,
      "pen": 3256,
      "amily": 3257,
      "capt": 3258,
      "ĠAR": 3259,
      "'\\": 3260,
      "Ġlocation": 3261,
      "ĠĠĠĠĠĠĠĠĠĠĠĠĠĠ": 3262,
      ".)": 3263,
      "OD": 3264,
      "blob": 3265,
      "ving": 3266,
      "Ġwhole": 3267,
      "filter": 3268,
      "hel": 3269,
      "Ġupd": 3270,
      "Ġcir": 3271,
      "When": 3272,
      "Ġcult": 3273,
      "Ġflo": 3274,
      "ends": 3275,
      "road": 3276,
      "Ġforward": 3277,
      "DataFile": 3278,
      "wise": 3279,
      "ĠMin": 3280,
      "rip": 3281,
      "hmda": 3282,
      "ĠHmda": 3283,
      "ĠHmdaDataFile": 3284,
      "All": 3285,
      "env": 3286,
      "ifier": 3287,
      "task": 3288,
      "Ġgir": 3289,
      "abled": 3290,
      "Ġbatch": 3291,
      "Ġmeas": 3292,
      "253": 3293,
      "Ġanything": 3294,
      "range": 3295,
      "OP": 3296,
      "find": 3297,
      "Ġimp": 3298,
      "Ġslot": 3299,
      "ĠĠĠĠĠĠĠĠĊ": 3300,
      "Ġdue": 3301,
      "parent": 3302,
      "172": 3303,
      "Ġrunning": 3304,
      "rew": 3305,
      "ille": 3306,
      "Ġcrit": 3307,
      "IP": 3308,
      ":`": 3309,
      "Ġpackage": 3310,
      "Ġmedia": 3311,
      "Ġinc": 3312,
      "Ġstay": 3313,
      "Ob": 3314,
      "Ġchallen": 3315,
      "ster": 3316,
      "Ġfront": 3317,
      "How": 3318,
      "anies": 3319,
      "Ġplease": 3320,
      "ected": 3321,
      "Ġrelation": 3322,
      "Update": 3323,
      "aily": 3324,
      "Ġunable": 3325,
      "atur": 3326,
      "uster": 3327,
      "river": 3328,
      "ĠInt": 3329,
      "83": 3330,
      "Tue": 3331,
      "Ġmor": 3332,
      "ball": 3333,
      "verse": 3334,
      "atural": 3335,
      "Ġexpect": 3336,
      "Ġsoftware": 3337,
      "Ġwriting": 3338,
      "Ġindustry": 3339,
      "gent": 3340,
      "alys": 3341,
      "Ġsave": 3342,
      "Ġtaking": 3343,
      "amed": 3344,
      "IM": 3345,
      "bar": 3346,
      "Ġexpress": 3347,
      "uction": 3348,
      "Ġdeter": 3349,
      "graph": 3350,
      "ĠAm": 3351,
      "UN": 3352,
      "iting": 3353,
      "Ġrisk": 3354,
      "ĠCount": 3355,
      "ĠYork": 3356,
      "Ġdocument": 3357,
      "ĠPer": 3358,
      "Ġamong": 3359,
      "Ġpurch": 3360,
      "Ġsimple": 3361,
      "Ġtw": 3362,
      "Ġstorage": 3363,
      "Ġener": 3364,
      "Ġftpd": 3365,
      "reed": 3366,
      "ĠDep": 3367,
      "Ġunique": 3368,
      "Ġminutes": 3369,
      "Ġseem": 3370,
      "Ġlarg": 3371,
      "Ġevents": 3372,
      "Ġcompet": 3373,
      "bit": 3374,
      "exp": 3375,
      "grad": 3376,
      "Ġsomeone": 3377,
      "Ġfriends": 3378,
      "Ġago": 3379,
      "Ġsche": 3380,
      "Ġfinal": 3381,
      "ĠReturns": 3382,
      "ĠHowever": 3383,
      "\\\\": 3384,
      "mask": 3385,
      "cer": 3386,
      "Ġnecess": 3387,
      "Ġgames": 3388,
      "elves": 3389,
      "aced": 3390,
      "iful": 3391,
      "Ġfailures": 3392,
      "ensive": 3393,
      "Ġthird": 3394,
      "ival": 3395,
      "ĠWill": 3396,
      "Ġbelieve": 3397,
      "ĠDr": 3398,
      "static": 3399,
      "ĠOct": 3400,
      "ease": 3401,
      "Ġmag": 3402,
      "WebKit": 3403,
      "patch": 3404,
      "Ġitems": 3405,
      "ledge": 3406,
      "Ġoriginal": 3407,
      "vari": 3408,
      "andom": 3409,
      "493": 3410,
      "ites": 3411,
      "rix": 3412,
      "ĉĉĉĉ": 3413,
      "ĠSend": 3414,
      "Ġneeded": 3415,
      "Ġcannot": 3416,
      "ĠBr": 3417,
      "Ġadmin": 3418,
      "first": 3419,
      "679": 3420,
      "ycle": 3421,
      "Ġdig": 3422,
      "Ġparams": 3423,
      "ounter": 3424,
      "Thu": 3425,
      "eed": 3426,
      "though": 3427,
      "hing": 3428,
      "Ġaxis": 3429,
      "163": 3430,
      "cfg": 3431,
      "Ġworks": 3432,
      "Ġscoreboard": 3433,
      "Ġwatch": 3434,
      "ĠMc": 3435,
      "admin": 3436,
      "main": 3437,
      "Ġrate": 3438,
      "Ġfilm": 3439,
      "})": 3440,
      "Ġpulumi": 3441,
      "Ġmode": 3442,
      "Ġjk": 3443,
      "ground": 3444,
      "iddle": 3445,
      "ĠRec": 3446,
      "true": 3447,
      "inner": 3448,
      "Ġtitle": 3449,
      "address": 3450,
      "ĠBo": 3451,
      "cloud": 3452,
      "keys": 3453,
      "imited": 3454,
      "module": 3455,
      "ĠSec": 3456,
      "Ġextra": 3457,
      "jk": 3458,
      "765": 3459,
      "Ã©": 3460,
      "change": 3461,
      "aker": 3462,
      "settings": 3463,
      "Ġfire": 3464,
      "Ġhope": 3465,
      "Ġ50": 3466,
      "']['": 3467,
      "ORT": 3468,
      "files": 3469,
      "Ġestab": 3470,
      "Ġfocus": 3471,
      "items": 3472,
      "asing": 3473,
      "Ġblack": 3474,
      "################################": 3475,
      "idget": 3476,
      "Ġ'''": 3477,
      "ĠWest": 3478,
      "Ġrecomm": 3479,
      "aged": 3480,
      "Ġissues": 3481,
      "Ġpain": 3482,
      "688": 3483,
      "Ġbuilding": 3484,
      "ipeline": 3485,
      "Ġstrateg": 3486,
      "urch": 3487,
      "Ġsugg": 3488,
      "Ġjson": 3489,
      "https": 3490,
      "Ġsuggest": 3491,
      "ĠRep": 3492,
      "Frame": 3493,
      "ĠSee": 3494,
      "itten": 3495,
      "Extend": 3496,
      "ĠCity": 3497,
      "ole": 3498,
      "2016": 3499,
      "Ġidea": 3500,
      "onExtend": 3501,
      ")))": 3502,
      "Ġ31": 3503,
      "roid": 3504,
      "rec": 3505,
      "ĠPAM": 3506,
      "obile": 3507,
      "Ġla": 3508,
      "Ġfurther": 3509,
      "Ġbar": 3510,
      "CC": 3511,
      "de": 3512,
      "762": 3513,
      "ees": 3514,
      "register": 3515,
      "Ġentire": 3516,
      "ebug": 3517,
      "Config": 3518,
      "sk": 3519,
      "Ġant": 3520,
      "Ġjs": 3521,
      "ĠĠĠĠĠĠĠĠĠĠĠĠĠĠĠĠĠĠĠĠĠĠĠĠĠĠĠĠĠĠĠĠĠĠĠ": 3522,
      "Ġmot": 3523,
      "ctions": 3524,
      "Ġpolicy": 3525,
      "Ac": 3526,
      "mail": 3527,
      "168": 3528,
      "ried": 3529,
      "augh": 3530,
      "Ġwords": 3531,
      "Ġglobal": 3532,
      "func": 3533,
      "Ġess": 3534,
      "rest": 3535,
      "Ġic": 3536,
      "ĠOb": 3537,
      "Ġtaken": 3538,
      "gn": 3539,
      "Ġtrying": 3540,
      "sec": 3541,
      "Ġ),": 3542,
      "alysis": 3543,
      "ĠEuro": 3544,
      "unk": 3545,
      "No": 3546,
      "like": 3547,
      "Ġfall": 3548,
      "ategory": 3549,
      "rs": 3550,
      "pecially": 3551,
      "Ġdisplay": 3552,
      "Ġconcern": 3553,
      "Ġformat": 3554,
      "Ġarray": 3555,
      "Ġlength": 3556,
      "zer": 3557,
      "Ġstore": 3558,
      "ĠAug": 3559,
      "Ġcompanies": 3560,
      "Ġpretty": 3561,
      "iev": 3562,
      "Ġrole": 3563,
      "Ġassoci": 3564,
      "Ġrepeated": 3565,
      "ouch": 3566,
      "Ġprevious": 3567,
      "Ġrather": 3568,
      "istic": 3569,
      "ĠOff": 3570,
      "Ġquestions": 3571,
      "ĠĠĠĠĠĠĠĠĠĠĠĠĠĠĠĠĠĠĠĠ": 3572,
      "Ġbool": 3573,
      "Ġ[/": 3574,
      "Ġissue": 3575,
      "Ġtypes": 3576,
      "umb": 3577,
      "Ġrad": 3578,
      "ancial": 3579,
      "Ġalmost": 3580,
      "Ġdetails": 3581,
      "'):": 3582,
      "Ġusers": 3583,
      "copy": 3584,
      "Input": 3585,
      "lab": 3586,
      "ĠĠĠĠĠĠĠĠĠĠĠĠ": 3587,
      "claim": 3588,
      "erm": 3589,
      "Ġwrite": 3590,
      "Ġtechnology": 3591,
      "Ġpotential": 3592,
      "valuate": 3593,
      "icens": 3594,
      "Ġexception": 3595,
      "ĠInterrupted": 3596,
      "Ġmaint": 3597,
      "ĠEd": 3598,
      "Ġvarious": 3599,
      "ocol": 3600,
      "Ġchanges": 3601,
      "Is": 3602,
      "ensions": 3603,
      "Ġneg": 3604,
      "Ġaddition": 3605,
      "event": 3606,
      ">):": 3607,
      "Info": 3608,
      "Ġsex": 3609,
      "Ġsend": 3610,
      "Ġfavor": 3611,
      "icrosoft": 3612,
      "Ġlikely": 3613,
      "\\-": 3614,
      "na": 3615,
      "ĠYour": 3616,
      "ĠSk": 3617,
      "eff": 3618,
      "elling": 3619,
      "ĠPres": 3620,
      "Ġhom": 3621,
      "Ġblog": 3622,
      "Ġchecking": 3623,
      "Ġaccording": 3624,
      "NS": 3625,
      "Ġeffort": 3626,
      "Ġgraph": 3627,
      "Ġmanagement": 3628,
      "94": 3629,
      "Ġeveryone": 3630,
      "Ġdeep": 3631,
      "Ġpict": 3632,
      "Ġenergy": 3633,
      "Ġperformance": 3634,
      "ĠInterrupting": 3635,
      "Or": 3636,
      "gen": 3637,
      "ĠSendWorker": 3638,
      "Time": 3639,
      "inary": 3640,
      "ĠOF": 3641,
      "Ġwond": 3642,
      "iol": 3643,
      "ĠStates": 3644,
      "ĠPart": 3645,
      "itting": 3646,
      "workers": 3647,
      "mode": 3648,
      "aging": 3649,
      "âĢ¢": 3650,
      "Col": 3651,
      "IR": 3652,
      "loss": 3653,
      "Ġsimply": 3654,
      "Ġmix": 3655,
      "Ġrelationship": 3656,
      "ios": 3657,
      "Ð¾": 3658,
      "Ġtoken": 3659,
      "ceiver": 3660,
      "EST": 3661,
      "Ġareas": 3662,
      "ĠOur": 3663,
      "hand": 3664,
      "Ġcompl": 3665,
      "struction": 3666,
      "Ġsubject": 3667,
      "dist": 3668,
      "anch": 3669,
      "iqu": 3670,
      "ĠValueError": 3671,
      "Ġage": 3672,
      "achine": 3673,
      "Ġwanted": 3674,
      "Ġdraw": 3675,
      "Ġschedul": 3676,
      "Ġprobably": 3677,
      "imate": 3678,
      "ino": 3679,
      "ĠNational": 3680,
      "Ġsn": 3681,
      "Value": 3682,
      "mbol": 3683,
      "70": 3684,
      "select": 3685,
      "'))": 3686,
      "aul": 3687,
      "Ġinstead": 3688,
      "Bridge": 3689,
      "91": 3690,
      "Ġawait": 3691,
      "evel": 3692,
      "ĠGoogle": 3693,
      "function": 3694,
      "airs": 3695,
      "ĠĠĠĠĠĠĠĠĠĠ": 3696,
      "ĠData": 3697,
      "Ġcorrect": 3698,
      "Ġengine": 3699,
      "Ġgen": 3700,
      "Ġnothing": 3701,
      "ĠList": 3702,
      "Status": 3703,
      "debug": 3704,
      "Ġlanguage": 3705,
      "Ġchannel": 3706,
      "Ġprim": 3707,
      "Ġensure": 3708,
      "Ġcoming": 3709,
      "Ġcustomers": 3710,
      "aa": 3711,
      "ĠAfter": 3712,
      "ĠGr": 3713,
      "Changed": 3714,
      "service": 3715,
      "medi": 3716,
      "Pe": 3717,
      "anks": 3718,
      "Ġasked": 3719,
      "expected": 3720,
      "ĠOR": 3721,
      "ĠGener": 3722,
      "ĠPol": 3723,
      "sche": 3724,
      "Ġoffice": 3725,
      "101": 3726,
      "Ġadditional": 3727,
      "Ġespecially": 3728,
      "Ġsuff": 3729,
      "clus": 3730,
      "reate": 3731,
      "Ġtrain": 3732,
      "Ġprovides": 3733,
      "Handler": 3734,
      "ĠAny": 3735,
      "Ġground": 3736,
      "84": 3737,
      "2013": 3738,
      "aur": 3739,
      "Ġnodes": 3740,
      "\"],": 3741,
      "Ġdeath": 3742,
      "Ġ[],": 3743,
      "current": 3744,
      "Ġquite": 3745,
      "ided": 3746,
      "Ġdiscuss": 3747,
      "Run": 3748,
      "Ġmember": 3749,
      "ĠGo": 3750,
      "Ġindic": 3751,
      "Ġdownload": 3752,
      "Ġbehind": 3753,
      "StandStep": 3754,
      "500": 3755,
      "oke": 3756,
      "Process": 3757,
      "Ġspecified": 3758,
      "ĠMe": 3759,
      "Ġimprove": 3760,
      "ĠMark": 3761,
      "61": 3762,
      "Ġwhite": 3763,
      "nes": 3764,
      "random": 3765,
      "Ġhttps": 3766,
      "just": 3767,
      "Ġproblems": 3768,
      "Ġsong": 3769,
      "Ġcook": 3770,
      "ĠReg": 3771,
      "ĠAP": 3772,
      "Ġvia": 3773,
      "iece": 3774,
      "Ġtravel": 3775,
      "Ġflow": 3776,
      "Ġsimilar": 3777,
      "Ġmoment": 3778,
      "Core": 3779,
      "ĠGu": 3780,
      "ĠMan": 3781,
      "izing": 3782,
      "Ġetc": 3783,
      "Ġbal": 3784,
      "ĠGe": 3785,
      "Ġ2011": 3786,
      "xml": 3787,
      "Ġprivate": 3788,
      "Ġtemper": 3789,
      "ĠStr": 3790,
      "ung": 3791,
      "Ġchanged": 3792,
      "axis": 3793,
      "Ind": 3794,
      "based": 3795,
      "core": 3796,
      "ĠSu": 3797,
      "msg": 3798,
      "Ġsecurity": 3799,
      "umer": 3800,
      "Node": 3801,
      "xn": 3802,
      "istration": 3803,
      "ĠSm": 3804,
      "Ġincludes": 3805,
      "Ġsignific": 3806,
      "Ġintern": 3807,
      "Ġparticip": 3808,
      "ozilla": 3809,
      "CE": 3810,
      "izes": 3811,
      "Class": 3812,
      "ĠID": 3813,
      "ĠEurope": 3814,
      "ĠAir": 3815,
      "Ġdam": 3816,
      "cache": 3817,
      "Ġimages": 3818,
      "ding": 3819,
      "Ġways": 3820,
      "project": 3821,
      "entials": 3822,
      "ributes": 3823,
      "Ġprior": 3824,
      "astic": 3825,
      "Ġmatter": 3826,
      "Ġoption": 3827,
      "title": 3828,
      "urance": 3829,
      "Ġquery": 3830,
      "Ġtakes": 3831,
      "Ġcommand": 3832,
      "Ġready": 3833,
      "ili": 3834,
      "Ġsat": 3835,
      "Ġcard": 3836,
      "mary": 3837,
      "Ġattribute": 3838,
      "apache": 3839,
      "Ġliving": 3840,
      "Ġprofessional": 3841,
      "ĠRead": 3842,
      "img": 3843,
      "ĠSchool": 3844,
      "Ġrights": 3845,
      "Ġcomplet": 3846,
      "cel": 3847,
      "igned": 3848,
      "Ġoffers": 3849,
      "Ġdescription": 3850,
      "Ġfix": 3851,
      "Ġtour": 3852,
      "Ġsep": 3853,
      "238": 3854,
      "lin": 3855,
      "ĠUser": 3856,
      "Ġ[-": 3857,
      "Ġmask": 3858,
      "ĠWorld": 3859,
      "Ġstandard": 3860,
      "store": 3861,
      "istr": 3862,
      "ĠNorth": 3863,
      "ĠHis": 3864,
      "PE": 3865,
      "ĠMon": 3866,
      "Content": 3867,
      "ĠAb": 3868,
      "Ġdescrib": 3869,
      "CON": 3870,
      "Ġtimeout": 3871,
      "Ġcurrently": 3872,
      "User": 3873,
      "aves": 3874,
      "Ġpressure": 3875,
      "drop": 3876,
      "Ġimplement": 3877,
      "Ġcomputer": 3878,
      "ĠDef": 3879,
      "FF": 3880,
      "String": 3881,
      "Report": 3882,
      "Ġinn": 3883,
      "Ġgeneral": 3884,
      "Ġfit": 3885,
      "Ġfoot": 3886,
      "location": 3887,
      "Mozilla": 3888,
      "Out": 3889,
      "ming": 3890,
      "Ġbeautiful": 3891,
      "pi": 3892,
      "Dict": 3893,
      "tag": 3894,
      "uation": 3895,
      "anced": 3896,
      "ME": 3897,
      "plot": 3898,
      "ĠCor": 3899,
      "lood": 3900,
      "One": 3901,
      "origin": 3902,
      "Model": 3903,
      "upport": 3904,
      "Ġparser": 3905,
      "local": 3906,
      "Ġcontract": 3907,
      "etimes": 3908,
      "By": 3909,
      "PORT": 3910,
      "Ġq": 3911,
      "Ġmsg": 3912,
      "ĠAust": 3913,
      "ATE": 3914,
      "CL": 3915,
      "ĠBar": 3916,
      "ica": 3917,
      "Ġsaf": 3918,
      "Ġkwargs": 3919,
      "Ġsoon": 3920,
      "82": 3921,
      "dule": 3922,
      "close": 3923,
      "Ġsym": 3924,
      "pril": 3925,
      "pop": 3926,
      "ĠSouth": 3927,
      "Ġparty": 3928,
      "cell": 3929,
      "layer": 3930,
      "ĠUp": 3931,
      "SS": 3932,
      "Ġknowledge": 3933,
      "Ġhon": 3934,
      "ears": 3935,
      "Ġweight": 3936,
      "Ġ''": 3937,
      ")]": 3938,
      "ĠTHE": 3939,
      "codes": 3940,
      "quot": 3941,
      "RI": 3942,
      "vol": 3943,
      "Ġbuilt": 3944,
      "txt": 3945,
      "Ġbott": 3946,
      "itter": 3947,
      "save": 3948,
      "Ġelement": 3949,
      "ta": 3950,
      "Ġdog": 3951,
      "Ġinfl": 3952,
      "Ġassist": 3953,
      "Ġfeed": 3954,
      "Ġstaff": 3955,
      "Ġrecent": 3956,
      "........": 3957,
      "iet": 3958,
      "Ġlonger": 3959,
      "argument": 3960,
      "={": 3961,
      "Ġ(/": 3962,
      "coming": 3963,
      "ynam": 3964,
      "arter": 3965,
      "ada": 3966,
      "Ġautom": 3967,
      "fields": 3968,
      "Ġapply": 3969,
      "where": 3970,
      "ĠGet": 3971,
      "Ġexperi": 3972,
      "active": 3973,
      "Ġ..": 3974,
      "Ġstyle": 3975,
      "estamp": 3976,
      "ournal": 3977,
      "Ġoutside": 3978,
      "Ġseems": 3979,
      "Ġresources": 3980,
      "grams": 3981,
      "ĠIP": 3982,
      "Ġlogging": 3983,
      "annels": 3984,
      "ĠAmerica": 3985,
      "ithub": 3986,
      "Ġgroups": 3987,
      "Ġpopular": 3988,
      "Object": 3989,
      "uc": 3990,
      "Ġdb": 3991,
      "ERN": 3992,
      "Ġmemory": 3993,
      "ĠCBS": 3994,
      "onStandStep": 3995,
      "Ġupon": 3996,
      "Ġlayer": 3997,
      "onStandStepChanged": 3998,
      "Ġsettings": 3999,
      "Ġshows": 4000,
      "Ġregister": 4001,
      "Ġframe": 4002,
      "ishing": 4003,
      "sm": 4004,
      "Ġrecogn": 4005,
      "Ġcharacters": 4006,
      "pool": 4007,
      "Event": 4008,
      "Sat": 4009,
      "Ġincrease": 4010,
      "pri": 4011,
      "Ġrandom": 4012,
      "ĠHigh": 4013,
      "Ġsharing": 4014,
      "Ġhit": 4015,
      "Ġregular": 4016,
      "Ġplayer": 4017,
      "Ġleave": 4018,
      "Cxn": 4019,
      "NIOServerCxn": 4020,
      "Ġphone": 4021,
      "Ġarticle": 4022,
      "Wed": 4023,
      "Ġunknown": 4024,
      "HO": 4025,
      "aven": 4026,
      "Ġlower": 4027,
      "ighb": 4028,
      "Domain": 4029,
      "ĠJust": 4030,
      "Ġfast": 4031,
      "Ġ2010": 4032,
      "ĠCenter": 4033,
      "Ġexact": 4034,
      "ialize": 4035,
      "Ġkids": 4036,
      "Ġheld": 4037,
      "abs": 4038,
      "Ġterms": 4039,
      "Ġsqu": 4040,
      "ĠWeb": 4041,
      "206": 4042,
      "Ġinside": 4043,
      "ĠSome": 4044,
      "Ġstates": 4045,
      "Ġship": 4046,
      "Ġobt": 4047,
      "hib": 4048,
      "ining": 4049,
      "duc": 4050,
      "Ġlogger": 4051,
      "Request": 4052,
      "255": 4053,
      "Ġ{\"": 4054,
      "Ġcause": 4055,
      "pace": 4056,
      "vision": 4057,
      "71": 4058,
      "Ġmap": 4059,
      "comple": 4060,
      "Ġroad": 4061,
      "ĠPark": 4062,
      "ĠOS": 4063,
      "Ġweeks": 4064,
      "mock": 4065,
      "prefix": 4066,
      "uge": 4067,
      "Ġsound": 4068,
      "Ġtensor": 4069,
      "ĠComp": 4070,
      "width": 4071,
      "Ġinvalid": 4072,
      "driver": 4073,
      "Ġcomment": 4074,
      "page": 4075,
      "Ġsaw": 4076,
      "ordin": 4077,
      "uary": 4078,
      "Ġcombin": 4079,
      "Ġdeg": 4080,
      "Int": 4081,
      "Ġrelated": 4082,
      "gment": 4083,
      "weight": 4084,
      "MP": 4085,
      "blog": 4086,
      "Ġreceive": 4087,
      "ĠMarch": 4088,
      "195": 4089,
      "Ġpi": 4090,
      "nodes": 4091,
      "Ġreading": 4092,
      "Form": 4093,
      "Ġbed": 4094,
      "Ġattack": 4095,
      "Ġnatural": 4096,
      "Ġden": 4097,
      "execut": 4098,
      "delete": 4099,
      "Ġshop": 4100,
      "138": 4101,
      "addr": 4102,
      "Ġeducation": 4103,
      "Ġsignificant": 4104,
      "Ġful": 4105,
      "Ġste": 4106,
      "ĠCounty": 4107,
      "RM": 4108,
      "light": 4109,
      "Ġrefer": 4110,
      "essages": 4111,
      "ĠJune": 4112,
      "Ġimpact": 4113,
      "ĠSet": 4114,
      "oph": 4115,
      "Ġintro": 4116,
      "Ġofficial": 4117,
      "Ġswe": 4118,
      "Ġfill": 4119,
      "Ġclick": 4120,
      "aught": 4121,
      "Ġplayers": 4122,
      "ĠDes": 4123,
      "Ġscreen": 4124,
      "iloc": 4125,
      "aries": 4126,
      "Ġregard": 4127,
      "icient": 4128,
      "Inter": 4129,
      "73": 4130,
      "Base": 4131,
      "ellow": 4132,
      ">.<": 4133,
      "Agent": 4134,
      "mt": 4135,
      "Ġach": 4136,
      "Ġyourself": 4137,
      "Ġsil": 4138,
      "Ġcases": 4139,
      "eleb": 4140,
      "ĠNow": 4141,
      "Ġdifficult": 4142,
      "Ġwindow": 4143,
      "Ġmultiple": 4144,
      "Ġclients": 4145,
      "Ġwar": 4146,
      "icles": 4147,
      "bidden": 4148,
      "ĠIS": 4149,
      "Ġrespect": 4150,
      "ĠType": 4151,
      "istry": 4152,
      "ashing": 4153,
      "ales": 4154,
      "Ġstage": 4155,
      "Ġprep": 4156,
      "(_": 4157,
      "ersion": 4158,
      "ĠFin": 4159,
      "My": 4160,
      "Ġlate": 4161,
      "oes": 4162,
      "AME": 4163,
      "Pr": 4164,
      "unt": 4165,
      "251": 4166,
      "Ġconditions": 4167,
      "cmd": 4168,
      "epend": 4169,
      "cls": 4170,
      "lines": 4171,
      "ĠRem": 4172,
      "hs": 4173,
      "Ġcouple": 4174,
      "iam": 4175,
      "Ġbooks": 4176,
      "awstats": 4177,
      "ĠInc": 4178,
      "edia": 4179,
      "iring": 4180,
      "Check": 4181,
      "------": 4182,
      "Ġappear": 4183,
      "Ġworth": 4184,
      "Ġintegr": 4185,
      "=(": 4186,
      "ĠGET": 4187,
      "vpn": 4188,
      "parser": 4189,
      "iance": 4190,
      "position": 4191,
      ")),": 4192,
      "Ġdisco": 4193,
      "Ġsense": 4194,
      "ague": 4195,
      "Ġ60": 4196,
      "objects": 4197,
      "Ġlatest": 4198,
      "ĠPre": 4199,
      "Ġpassed": 4200,
      "LC": 4201,
      "Ġcls": 4202,
      "yn": 4203,
      "Ġplatform": 4204,
      "[-": 4205,
      "Ġorg": 4206,
      "Ġlearning": 4207,
      "oms": 4208,
      "Ġround": 4209,
      "Ġfinancial": 4210,
      "ocr": 4211,
      "Ġsepar": 4212,
      "utf": 4213,
      "Ġitself": 4214,
      "Keep": 4215,
      "Ġincluded": 4216,
      "Ð°": 4217,
      "Ġpaper": 4218,
      "Ġsystems": 4219,
      "ĠDon": 4220,
      "Ġarch": 4221,
      "Ġdesigned": 4222,
      "Ġdiv": 4223,
      "torch": 4224,
      "ugg": 4225,
      "reet": 4226,
      "cond": 4227,
      "Ġthroughout": 4228,
      "Ġavoid": 4229,
      "ionary": 4230,
      "olid": 4231,
      "aign": 4232,
      "ĠRev": 4233,
      "Ġ40": 4234,
      "Ġhidden": 4235,
      "Ġhigher": 4236,
      "Ġusually": 4237,
      "Ġnecessary": 4238,
      "Ġ2014": 4239,
      "Pl": 4240,
      "Receiver": 4241,
      "ns": 4242,
      "pulumi": 4243,
      "iles": 4244,
      "Ġmodule": 4245,
      "ny": 4246,
      "Ġlevels": 4247,
      "Ad": 4248,
      "ĠPy": 4249,
      "ĠDay": 4250,
      "bose": 4251,
      "adoop": 4252,
      "ĠPresident": 4253,
      "Port": 4254,
      "Ġchoose": 4255,
      "anging": 4256,
      ">/<": 4257,
      "ana": 4258,
      "Ġbroad": 4259,
      "ĠCO": 4260,
      "Ġfields": 4261,
      "Ġep": 4262,
      "Ġpredict": 4263,
      "points": 4264,
      "ĠDirectory": 4265,
      "ological": 4266,
      "Ġboard": 4267,
      "Ġopportunity": 4268,
      "enced": 4269,
      "iment": 4270,
      "Ġcollection": 4271,
      "79": 4272,
      "example": 4273,
      "89": 4274,
      "LI": 4275,
      "Ġcand": 4276,
      "Ġlost": 4277,
      "ĠJo": 4278,
      "Ġallowed": 4279,
      "Ġgoal": 4280,
      "Ġrelease": 4281,
      "ĠgetTodayTotalDetailSteps": 4282,
      "Ġdisconnect": 4283,
      "space": 4284,
      "oad": 4285,
      "qa": 4286,
      "Ġill": 4287,
      "vm": 4288,
      "setTodayTotalDetailSteps": 4289,
      "Ġactivity": 4290,
      "riday": 4291,
      "Ġ---": 4292,
      "ĠtotalAltitude": 4293,
      "calculateAltitude": 4294,
      "calculateAltitudeWithCache": 4295,
      "ĠtotalCalories": 4296,
      "calculateCalories": 4297,
      "calculateCaloriesWithCache": 4298,
      "Ġinj": 4299,
      "rics": 4300,
      "Ġwww": 4301,
      "ĠApril": 4302,
      "Ġ[\"": 4303,
      "uses": 4304,
      "encies": 4305,
      "Ġnational": 4306,
      "Ġstream": 4307,
      "opyright": 4308,
      "ociety": 4309,
      "ĠDav": 4310,
      "Ġlines": 4311,
      "IOS": 4312,
      "Ġsales": 4313,
      "atives": 4314,
      "Ġentry": 4315,
      "ober": 4316,
      "alls": 4317,
      "ederal": 4318,
      "ĠMicrosoft": 4319,
      "mselves": 4320,
      "Ġtreatment": 4321,
      "Action": 4322,
      "Ġoil": 4323,
      "Ġanswer": 4324,
      "'d": 4325,
      "MA": 4326,
      "uel": 4327,
      "ĠStud": 4328,
      "Ġmedical": 4329,
      "ening": 4330,
      "Ġpan": 4331,
      "Ġforbidden": 4332,
      "Phone": 4333,
      "ĠCheck": 4334,
      "=-": 4335,
      "Ġmass": 4336,
      "Ġconv": 4337,
      "Ġactual": 4338,
      "acing": 4339,
      "parameters": 4340,
      "equal": 4341,
      "tf": 4342,
      "Ðµ": 4343,
      "Ġthemselves": 4344,
      "ĠVal": 4345,
      "Ġwritten": 4346,
      "la": 4347,
      "ĠSim": 4348,
      "Ġ</": 4349,
      "Ġarr": 4350,
      "Ġskin": 4351,
      "gi": 4352,
      "ulti": 4353,
      "`.": 4354,
      "ĠMich": 4355,
      "Ġmer": 4356,
      "Ġrecently": 4357,
      "Ġremember": 4358,
      "Ġmorning": 4359,
      "github": 4360,
      "ugin": 4361,
      "Ġdeliver": 4362,
      "HiH": 4363,
      "ufact": 4364,
      "Ġreach": 4365,
      "Ġcommit": 4366,
      "och": 4367,
      "sample": 4368,
      "Ġtel": 4369,
      "hood": 4370,
      "Ġsuccessful": 4371,
      "Ġpark": 4372,
      "zy": 4373,
      "227": 4374,
      "tle": 4375,
      "Ġapplic": 4376,
      "DF": 4377,
      "Ġ218": 4378,
      "ades": 4379,
      "umber": 4380,
      "Ġleaders": 4381,
      "amera": 4382,
      "Ġbegan": 4383,
      "color": 4384,
      "TION": 4385,
      "served": 4386,
      "Oper": 4387,
      "Ġcross": 4388,
      "Ġprotect": 4389,
      "Ġviol": 4390,
      "hadoop": 4391,
      "eng": 4392,
      "writ": 4393,
      "Ġsample": 4394,
      "ĠCON": 4395,
      "cat": 4396,
      "aturday": 4397,
      "Ġ],": 4398,
      "rought": 4399,
      "duction": 4400,
      "Ġpractice": 4401,
      "ML": 4402,
      "Ġmethods": 4403,
      "try": 4404,
      "openstack": 4405,
      "yl": 4406,
      "irit": 4407,
      "inder": 4408,
      "VER": 4409,
      "ĠHouse": 4410,
      "Ġgrowth": 4411,
      "Dat": 4412,
      "Ġanyone": 4413,
      "Ġcareer": 4414,
      "ĠSept": 4415,
      "only": 4416,
      "irth": 4417,
      "StandReport": 4418,
      "StandReportReceiver": 4419,
      "can": 4420,
      "ester": 4421,
      "ĠARPT": 4422,
      "CK": 4423,
      "Return": 4424,
      "Ġprevent": 4425,
      "'].": 4426,
      "Ġcapt": 4427,
      "Ġstarting": 4428,
      "Ġapproach": 4429,
      "Ġdrive": 4430,
      "Tensor": 4431,
      "Val": 4432,
      "ĠCC": 4433,
      "Pre": 4434,
      "mm": 4435,
      "Ġbehav": 4436,
      "etry": 4437,
      "Ġpolitical": 4438,
      "actions": 4439,
      "131": 4440,
      "ha": 4441,
      "Ġreturned": 4442,
      "Ġslow": 4443,
      "Ġ'/": 4444,
      "ĠMore": 4445,
      "Ġprograms": 4446,
      "ATION": 4447,
      "Ġhappy": 4448,
      "Ġdev": 4449,
      "ĠPe": 4450,
      "Ġformer": 4451,
      "track": 4452,
      "Ġlives": 4453,
      "efore": 4454,
      "Ġsens": 4455,
      "atory": 4456,
      "Ġoptional": 4457,
      "Ġir": 4458,
      "Ġinfo": 4459,
      "adding": 4460,
      "dom": 4461,
      "ham": 4462,
      "Ġsus": 4463,
      "afari": 4464,
      "ĠJuly": 4465,
      "ĠEvent": 4466,
      "Ġfilter": 4467,
      "Ġcustomer": 4468,
      "Ġimmedi": 4469,
      "Ġcenter": 4470,
      "igation": 4471,
      "Ġoperation": 4472,
      "Ġaverage": 4473,
      "Ġcat": 4474,
      "but": 4475,
      "Ġcomfort": 4476,
      "network": 4477,
      "Ġmeeting": 4478,
      "Ġsection": 4479,
      "async": 4480,
      "RA": 4481,
      "system": 4482,
      "Ġwasn": 4483,
      "Ġworked": 4484,
      "Ġbrand": 4485,
      "Ġstock": 4486,
      "activity": 4487,
      "Ġinputs": 4488,
      "Ġeffective": 4489,
      "New": 4490,
      "Ġtuple": 4491,
      "ĠSw": 4492,
      "Ġcredit": 4493,
      "ga": 4494,
      "Ġspeed": 4495,
      "Ġnice": 4496,
      "description": 4497,
      "Ġnoqa": 4498,
      "clude": 4499,
      "Ġlooks": 4500,
      "Ġnamed": 4501,
      "Ġproper": 4502,
      "Ġtemperature": 4503,
      "ĠPat": 4504,
      "ĠĠĠĠĠĠĠĠĠĠĠĠĠĠĠĠĠĠĠĠĠĠĠĠĠĠĠĠĠĠĠĠĠĠĠĠĠĠĠ": 4505,
      "ĠInfo": 4506,
      "Ġattention": 4507,
      "element": 4508,
      "Ġprogress": 4509,
      "oder": 4510,
      "mean": 4511,
      "xx": 4512,
      "orter": 4513,
      "acc": 4514,
      "ĠWord": 4515,
      "ĠTrans": 4516,
      "ese": 4517,
      "Ġtown": 4518,
      "Ġquickly": 4519,
      "Ġdecision": 4520,
      "ĠHar": 4521,
      "Ġparts": 4522,
      "Ġallows": 4523,
      "ute": 4524,
      "Ġplaying": 4525,
      "Ġwrong": 4526,
      "ĠÐ": 4527,
      "Ġjud": 4528,
      "send": 4529,
      "Ġblk": 4530,
      "EX": 4531,
      "onday": 4532,
      "Ġgoes": 4533,
      "Ġproduction": 4534,
      "Ġcool": 4535,
      "ĠSystem": 4536,
      "Ġple": 4537,
      "Ġnumpy": 4538,
      "Ġones": 4539,
      "KE": 4540,
      "roy": 4541,
      "Ġseek": 4542,
      "irection": 4543,
      "Ġpd": 4544,
      "Ġhands": 4545,
      "has": 4546,
      "Ġobj": 4547,
      "Ġprojects": 4548,
      "wd": 4549,
      "Ġtag": 4550,
      "Ġremove": 4551,
      "ĠArt": 4552,
      "Ġtool": 4553,
      "olutions": 4554,
      "ĠKey": 4555,
      "Ġfinally": 4556,
      "ĠException": 4557,
      "attle": 4558,
      ">_": 4559,
      "Path": 4560,
      "Ġprec": 4561,
      "band": 4562,
      "Ġsafe": 4563,
      "email": 4564,
      "ĉĉĉ": 4565,
      "Lear": 4566,
      "Ġserious": 4567,
      "Ġmid": 4568,
      "Ġwoman": 4569,
      "PC": 4570,
      "ivery": 4571,
      "duced": 4572,
      "FA": 4573,
      "Ġlegal": 4574,
      "189": 4575,
      "Ġcreating": 4576,
      "Ġblood": 4577,
      "Address": 4578,
      "Ġshall": 4579,
      "Ġdirectly": 4580,
      "Param": 4581,
      "Ġcosts": 4582,
      "Ġactive": 4583,
      "Ġceleb": 4584,
      "unday": 4585,
      "\\:": 4586,
      "ĠĠĠĠĠĠĠĠĠĠĠĠĠĠĠĠĠĠĠĠĠ": 4587,
      "ĠWed": 4588,
      "ypes": 4589,
      "icket": 4590,
      "Ġinsp": 4591,
      "oto": 4592,
      "lier": 4593,
      "azing": 4594,
      "ĠAssoci": 4595,
      "Cisco": 4596,
      "Ġchance": 4597,
      "Peer": 4598,
      "stream": 4599,
      "dt": 4600,
      "Ġwonder": 4601,
      "RAN": 4602,
      "Ġmyself": 4603,
      "using": 4604,
      "force": 4605,
      "haps": 4606,
      "ĠWhile": 4607,
      "Ġoptim": 4608,
      "ĠHealth": 4609,
      "Ġenter": 4610,
      "Ġdelet": 4611,
      "ĠAtt": 4612,
      "Call": 4613,
      "iforn": 4614,
      "Response": 4615,
      "ĠSan": 4616,
      "Ġge": 4617,
      "ĠPlease": 4618,
      "ĠRed": 4619,
      "plied": 4620,
      "Ġtransform": 4621,
      "Ġmonitor": 4622,
      "sign": 4623,
      "fit": 4624,
      "Ġgets": 4625,
      "Ġcountries": 4626,
      "Jun": 4627,
      "ĠWindows": 4628,
      "Ġ2015": 4629,
      "Ġstudent": 4630,
      "Ġbecame": 4631,
      "Trans": 4632,
      "Ġvict": 4633,
      "Ġ()": 4634,
      "Att": 4635,
      "Ġdrug": 4636,
      "Ġparameters": 4637,
      "Ġveh": 4638,
      ":]": 4639,
      "Ġwide": 4640,
      "Ġvariety": 4641,
      "Ġdecl": 4642,
      "usiness": 4643,
      "Ġequip": 4644,
      "sv": 4645,
      "Ġsleep": 4646,
      "Ġdriv": 4647,
      "ĠPost": 4648,
      "iers": 4649,
      "Ġ2009": 4650,
      "Ġconsist": 4651,
      "501": 4652,
      "mitted": 4653,
      "Ġswitch": 4654,
      "del": 4655,
      "Exception": 4656,
      "Ġhair": 4657,
      "ĠNews": 4658,
      "ym": 4659,
      "cts": 4660,
      "Ġiter": 4661,
      "Text": 4662,
      "fn": 4663,
      "ened": 4664,
      "Ġgave": 4665,
      "Ġchoice": 4666,
      "OL": 4667,
      "pat": 4668,
      "ĠMus": 4669,
      "ĠAustral": 4670,
      "Our": 4671,
      "Ġactivities": 4672,
      "Ġtouch": 4673,
      "Ġasync": 4674,
      "aches": 4675,
      "bert": 4676,
      "Ġstructure": 4677,
      "Ġsell": 4678,
      "ĠWar": 4679,
      "Ġcondition": 4680,
      "uk": 4681,
      "ares": 4682,
      "hold": 4683,
      "Ġdress": 4684,
      "header": 4685,
      "Keeper": 4686,
      "BC": 4687,
      "120": 4688,
      "adem": 4689,
      "Ġheight": 4690,
      "Ġdecided": 4691,
      "ĠCour": 4692,
      "next": 4693,
      "rea": 4694,
      "Ġlab": 4695,
      "ĠEl": 4696,
      "Ġinvolved": 4697,
      "Zoo": 4698,
      "ĠAg": 4699,
      "Ġterm": 4700,
      "That": 4701,
      "ĠĠĠĠĠĠĠĠĠĠĠĠĠĠĠĠĠĠĠĠĠĠĠĠĠĠĠĠ": 4702,
      "ĠHere": 4703,
      "From": 4704,
      "Ġbank": 4705,
      "rt": 4706,
      "alt": 4707,
      "Ġhor": 4708,
      "columns": 4709,
      "Ġfavorite": 4710,
      "KeeperServer": 4711,
      "Ġability": 4712,
      "ĠMac": 4713,
      "Ġcompon": 4714,
      "Ġconsidered": 4715,
      "ZooKeeperServer": 4716,
      ");": 4717,
      "Of": 4718,
      "ĠWork": 4719,
      "Ġpattern": 4720,
      "View": 4721,
      "Ġdead": 4722,
      "Ġcharg": 4723,
      "apped": 4724,
      "Ġreported": 4725,
      "Ġfight": 4726,
      "Ġmention": 4727,
      "[:,": 4728,
      "ãģ": 4729,
      "Ġow": 4730,
      "Ġ59": 4731,
      "Ġnote": 4732,
      "Ġeasily": 4733,
      "Ġcampaign": 4734,
      "Ġconduct": 4735,
      "'}": 4736,
      "owner": 4737,
      "Ġobjects": 4738,
      "acity": 4739,
      "Ġtrust": 4740,
      "Ġmovie": 4741,
      "ael": 4742,
      "ĠJanuary": 4743,
      "~~": 4744,
      "Ġpull": 4745,
      "pha": 4746,
      "ifornia": 4747,
      "ĠThen": 4748,
      "Ġuses": 4749,
      "Ġpython": 4750,
      "Ġfair": 4751,
      "classes": 4752,
      "headers": 4753,
      "olt": 4754,
      "lying": 4755,
      "look": 4756,
      "Ġsav": 4757,
      "ĠMr": 4758,
      "Ġled": 4759,
      "Ġqual": 4760,
      "ovember": 4761,
      "erg": 4762,
      "sync": 4763,
      "ĠDepartment": 4764,
      "Ġregion": 4765,
      "anger": 4766,
      "Ġrecommend": 4767,
      "pm": 4768,
      "vest": 4769,
      "ĠTV": 4770,
      "Ġdfs": 4771,
      "Ġtermin": 4772,
      "scale": 4773,
      "Ġinternational": 4774,
      "Sep": 4775,
      "ocal": 4776,
      "DS": 4777,
      "oving": 4778,
      "Ġreturns": 4779,
      "Ġforce": 4780,
      "claims": 4781,
      "Ġexisting": 4782,
      "Ġprefer": 4783,
      "Ġideas": 4784,
      "apter": 4785,
      "ida": 4786,
      "Ġ2016": 4787,
      "UP": 4788,
      "FT": 4789,
      "Sc": 4790,
      "django": 4791,
      "aby": 4792,
      "scription": 4793,
      "Ġleading": 4794,
      "Ġhimself": 4795,
      "Ġspeak": 4796,
      "Ġsummer": 4797,
      "istory": 4798,
      "Ġdatabase": 4799,
      "ynamic": 4800,
      "Ġdistributed": 4801,
      "lim": 4802,
      "child": 4803,
      "avy": 4804,
      "Ġhear": 4805,
      "Ġsurpr": 4806,
      "After": 4807,
      "itary": 4808,
      "cor": 4809,
      "Ġ1892": 4810,
      "Block": 4811,
      "Oct": 4812,
      "Ġet": 4813,
      "Ġabsolut": 4814,
      "wood": 4815,
      "orge": 4816,
      "Ġpositive": 4817,
      "lation": 4818,
      "lean": 4819,
      "Ġroll": 4820,
      "ooth": 4821,
      "win": 4822,
      "bot": 4823,
      "Ġdriver": 4824,
      "System": 4825,
      "Ġheader": 4826,
      "Pol": 4827,
      "Ġdirectory": 4828,
      "pty": 4829,
      "lower": 4830,
      "scope": 4831,
      "src": 4832,
      "Ġcolumns": 4833,
      "Mod": 4834,
      "Ġsolution": 4835,
      "Ġcomplex": 4836,
      "Ġskills": 4837,
      "Ġpatients": 4838,
      "channel": 4839,
      "Ġrank": 4840,
      "ĠFace": 4841,
      "replace": 4842,
      "Ġanalysis": 4843,
      "Ġ64": 4844,
      "Service": 4845,
      "ĠOf": 4846,
      "Ġknew": 4847,
      "Ġresid": 4848,
      "Reg": 4849,
      "Ġsaying": 4850,
      "command": 4851,
      "74": 4852,
      "anagement": 4853,
      "FI": 4854,
      "Ġsetting": 4855,
      "ĠChar": 4856,
      "ĠAugust": 4857,
      "Ġdark": 4858,
      "Ġbrought": 4859,
      "Ġvolume": 4860,
      "ĠEnglish": 4861,
      "Ġtransport": 4862,
      "219": 4863,
      "ĠSen": 4864,
      "Ġeyes": 4865,
      "iced": 4866,
      "comes": 4867,
      "ĠGroup": 4868,
      "Ġinf": 4869,
      "Ġcourt": 4870,
      "CA": 4871,
      "inger": 4872,
      "142": 4873,
      "cember": 4874,
      "Ġoperations": 4875,
      "oute": 4876,
      "258": 4877,
      "REPORT": 4878,
      "Ġplayed": 4879,
      "Ġerr": 4880,
      "Ġtcp": 4881,
      "Ġpool": 4882,
      "ULT": 4883,
      "Ġplans": 4884,
      "Ġunit": 4885,
      "more": 4886,
      "Ġexplo": 4887,
      "Ġscheduler": 4888,
      "men": 4889,
      "ĠAfr": 4890,
      "events": 4891,
      "Ġfinish": 4892,
      "evaluate": 4893,
      "lished": 4894,
      "XR": 4895,
      "Ġfresh": 4896,
      "HT": 4897,
      "Ġpiece": 4898,
      "Ġinteresting": 4899,
      "Ġtried": 4900,
      "Ġpolice": 4901,
      "Ġdaily": 4902,
      "ecause": 4903,
      "Ġdatetime": 4904,
      "Ġdom": 4905,
      "Ġnotice": 4906,
      "strict": 4907,
      "ĠBlack": 4908,
      "Link": 4909,
      "ĠRAS": 4910,
      "Ġsou": 4911,
      "ications": 4912,
      "Lsa": 4913,
      "Ġcompletely": 4914,
      "MS": 4915,
      "enty": 4916,
      "author": 4917,
      "norm": 4918,
      "Ġbutton": 4919,
      "Ġhandle": 4920,
      "xf": 4921,
      "Ġlambda": 4922,
      "Ġcontribut": 4923,
      "Ġfelt": 4924,
      "Ġcup": 4925,
      "Ġserial": 4926,
      "ĠFriday": 4927,
      "conv": 4928,
      "Ġapi": 4929,
      "Ġheard": 4930,
      "ĠArgs": 4931,
      "ĠAlso": 4932,
      "Ġpublished": 4933,
      "Ġstuff": 4934,
      "Ġ80": 4935,
      "\"):": 4936,
      "Ġ2008": 4937,
      "mas": 4938,
      "Ġsun": 4939,
      "bound": 4940,
      "err": 4941,
      "Ġsect": 4942,
      "ospital": 4943,
      "Ġestablish": 4944,
      "XX": 4945,
      "zz": 4946,
      "osh": 4947,
      "ĠFirst": 4948,
      "cred": 4949,
      "(__": 4950,
      "ech": 4951,
      "ibly": 4952,
      "\"))": 4953,
      "dataset": 4954,
      "wait": 4955,
      "Ġund": 4956,
      "Ġ---------": 4957,
      "ĠSun": 4958,
      "ĠAng": 4959,
      "rive": 4960,
      "inputs": 4961,
      "aling": 4962,
      "Ġnature": 4963,
      "Ġearn": 4964,
      "129": 4965,
      "dp": 4966,
      "Ġbi": 4967,
      "Ġgreen": 4968,
      "Ġblob": 4969,
      "ounced": 4970,
      "Ġconsum": 4971,
      "Ġdrink": 4972,
      "itable": 4973,
      "agn": 4974,
      "ĠOpen": 4975,
      "Ġprimary": 4976,
      "Ġsafety": 4977,
      "(*": 4978,
      "Ġnumbers": 4979,
      "72": 4980,
      "ĠCalifornia": 4981,
      "ĠOctober": 4982,
      "Ġsage": 4983,
      "Ġlib": 4984,
      "ĠService": 4985,
      "Ġstreng": 4986,
      "Ġupdated": 4987,
      "ĠFrom": 4988,
      "256": 4989,
      "mine": 4990,
      "Ġmis": 4991,
      "ico": 4992,
      "ĠHol": 4993,
      "ĠLa": 4994,
      "sets": 4995,
      "Ġord": 4996,
      "Ġgirl": 4997,
      "Ġms": 4998,
      "Ġproperties": 4999,
      "Ġconvert": 5000,
      "uesday": 5001,
      "ĠDem": 5002,
      "ĠBrit": 5003,
      "Ġequal": 5004,
      "missions": 5005,
      "null": 5006,
      "itation": 5007,
      "Ġhour": 5008,
      "Ġgives": 5009,
      "loyment": 5010,
      "Ġthinking": 5011,
      "WebContent": 5012,
      "Ġparents": 5013,
      "ĠInternational": 5014,
      "oon": 5015,
      "ĠRE": 5016,
      "Se": 5017,
      "erry": 5018,
      "ĠSaturday": 5019,
      "VE": 5020,
      "dr": 5021,
      "thern": 5022,
      "306": 5023,
      "URL": 5024,
      "Ġbenefits": 5025,
      "Ġcontains": 5026,
      "Ġinsurance": 5027,
      "chen": 5028,
      "ĠParam": 5029,
      "atio": 5030,
      "normal": 5031,
      "Ġhuge": 5032,
      "ords": 5033,
      "pite": 5034,
      "riptor": 5035,
      "Ġjoin": 5036,
      "Ġdiscover": 5037,
      "make": 5038,
      "ĠST": 5039,
      "eve": 5040,
      "Ġraw": 5041,
      "Ġstatement": 5042,
      "81": 5043,
      "vey": 5044,
      "Ġelements": 5045,
      "ests": 5046,
      "Ġassociated": 5047,
      "ville": 5048,
      "Ġmodern": 5049,
      "roller": 5050,
      "PS": 5051,
      "ĠHer": 5052,
      "connection": 5053,
      "Ġlock": 5054,
      "Ġencour": 5055,
      "Ġeconomic": 5056,
      ")):": 5057,
      "Ġwood": 5058,
      "Ġcho": 5059,
      "Ġspent": 5060,
      "Sync": 5061,
      "Ġreverse": 5062,
      "ĠPM": 5063,
      ".\")": 5064,
      "Ġmount": 5065,
      "ĠUse": 5066,
      "bool": 5067,
      "Ġfrequ": 5068,
      "Ġhy": 5069,
      "Ġhop": 5070,
      "ĠUnion": 5071,
      "Ent": 5072,
      "foo": 5073,
      "ris": 5074,
      "het": 5075,
      "Ġattr": 5076,
      "captured": 5077,
      "ĠCommun": 5078,
      "400": 5079,
      "Ġgiving": 5080,
      "ERNEL": 5081,
      "Ġsold": 5082,
      "rad": 5083,
      "Ġbud": 5084,
      "Ġmanufact": 5085,
      "ker": 5086,
      "Ġcas": 5087,
      "urg": 5088,
      "Ġrules": 5089,
      "Ġball": 5090,
      "apper": 5091,
      "icks": 5092,
      "ĠBen": 5093,
      "porary": 5094,
      "ican": 5095,
      "ncy": 5096,
      "Ġke": 5097,
      "Ġorganization": 5098,
      "cup": 5099,
      "Ġsometimes": 5100,
      "vant": 5101,
      "rote": 5102,
      "802": 5103,
      "istics": 5104,
      "Ġimag": 5105,
      "Ġpurchase": 5106,
      "Ġdoor": 5107,
      "AY": 5108,
      "Read": 5109,
      "Ġten": 5110,
      "RL": 5111,
      "ĠTw": 5112,
      "Ġinterview": 5113,
      "Ġcy": 5114,
      "ĠCall": 5115,
      "apan": 5116,
      "Ġvot": 5117,
      "Ġlooked": 5118,
      "Ġsupported": 5119,
      "Ġpresident": 5120,
      "ruary": 5121,
      "She": 5122,
      "Ġsocket": 5123,
      "Ġwarm": 5124,
      "Ġmother": 5125,
      "ĠSunday": 5126,
      "arily": 5127,
      "eces": 5128,
      "Ġphotograph": 5129,
      "Ġreleased": 5130,
      "icated": 5131,
      "Ġdefinit": 5132,
      "hash": 5133,
      "Ġ32": 5134,
      "TY": 5135,
      "Ġnation": 5136,
      "logger": 5137,
      "Ġcorecaptured": 5138,
      "Ġsteps": 5139,
      "Library": 5140,
      "Ġmarketing": 5141,
      "ponder": 5142,
      "__,": 5143,
      "sts": 5144,
      "Ġ-------": 5145,
      "Ġblue": 5146,
      "Ġappropri": 5147,
      "match": 5148,
      "Ġdevices": 5149,
      "Ġcollege": 5150,
      "transform": 5151,
      "tee": 5152,
      "********": 5153,
      "cope": 5154,
      "pytest": 5155,
      "ĠRel": 5156,
      "ĠKERNEL": 5157,
      "Ġheaders": 5158,
      "Ġdifference": 5159,
      "Ġbey": 5160,
      "allow": 5161,
      "(-": 5162,
      "isf": 5163,
      "Desc": 5164,
      "Fig": 5165,
      "ipe": 5166,
      "ĠSep": 5167,
      "Ġfilename": 5168,
      "Ġbeyond": 5169,
      "ĠNovember": 5170,
      "ashington": 5171,
      "Gener": 5172,
      "Ġargument": 5173,
      "NAME": 5174,
      "Ġreplace": 5175,
      "ĠCopyright": 5176,
      "hest": 5177,
      "icip": 5178,
      "ursday": 5179,
      "Ġ[-]": 5180,
      "aises": 5181,
      "Ġpers": 5182,
      "ĠName": 5183,
      "Ġaware": 5184,
      "Ġanaly": 5185,
      "Sub": 5186,
      "ĠRun": 5187,
      "Ġrequires": 5188,
      "Ġdouble": 5189,
      "div": 5190,
      "uuid": 5191,
      "ĠĠĠĠĠĠĠĠĠĠĠĠĠĠĠĠĠĠ": 5192,
      "Ġfully": 5193,
      "Ġexcell": 5194,
      "bum": 5195,
      "Ġshut": 5196,
      "Ġamazing": 5197,
      "Ġ>=": 5198,
      "Ġband": 5199,
      "Ġclasses": 5200,
      "Ġreflect": 5201,
      "Ġstrategy": 5202,
      "Ġgold": 5203,
      "Ġexactly": 5204,
      "Ġwidth": 5205,
      "Ġdataset": 5206,
      "Media": 5207,
      "Ġcodes": 5208,
      "Ġplaces": 5209,
      "Ġelection": 5210,
      "Ġpartners": 5211,
      "Ġlabels": 5212,
      "Ġmissing": 5213,
      "Ġdimension": 5214,
      "Ġretries": 5215,
      "Ġlack": 5216,
      "ube": 5217,
      "Ġinterface": 5218,
      "Ġinnov": 5219,
      "ĠSeptember": 5220,
      "ĠSch": 5221,
      "Ġtesting": 5222,
      "Ġignoring": 5223,
      "?âĢĿ": 5224,
      "ĠToo": 5225,
      "sys": 5226,
      "Ġson": 5227,
      "Ġfirm": 5228,
      "ampion": 5229,
      "Ġbeginning": 5230,
      "Aug": 5231,
      "ĠSub": 5232,
      "Ġdigital": 5233,
      "ĠLink": 5234,
      "Ġneighb": 5235,
      "ancy": 5236,
      "327": 5237,
      "They": 5238,
      "posit": 5239,
      "Ġhighly": 5240,
      "Ġtrade": 5241,
      "Ġlocated": 5242,
      "PL": 5243,
      "Ġdjango": 5244,
      "Ġmaterials": 5245,
      "long": 5246,
      "Ð¸": 5247,
      "Ġtests": 5248,
      "results": 5249,
      "Ġlimited": 5250,
      "\"])": 5251,
      "Ġpad": 5252,
      "Ġul": 5253,
      "Ġproviding": 5254,
      "Ġtools": 5255,
      "game": 5256,
      "Ġmobile": 5257,
      "Ġremain": 5258,
      "ĠFacebook": 5259,
      "ĠInst": 5260,
      "Ġsetup": 5261,
      "Ġmaybe": 5262,
      "roadcast": 5263,
      "gar": 5264,
      "real": 5265,
      "Ġphysical": 5266,
      "itness": 5267,
      "App": 5268,
      "Ġsen": 5269,
      "Ġreduce": 5270,
      "Ġfinished": 5271,
      "Ġnet": 5272,
      "**\\:": 5273,
      "nesday": 5274,
      "]),": 5275,
      "ĠIgn": 5276,
      "Ġopened": 5277,
      "ĠTime": 5278,
      "acket": 5279,
      "Ġkit": 5280,
      "Ġclub": 5281,
      "Ġsmart": 5282,
      "Ġcandid": 5283,
      "ilies": 5284,
      "ignment": 5285,
      "Ġcompleted": 5286,
      "Ġyield": 5287,
      "container": 5288,
      "Ġsituation": 5289,
      "Fl": 5290,
      "ca": 5291,
      "Ġshot": 5292,
      "rypt": 5293,
      "ĠĠĠĠĠĠĠĠĠĠĠĠĠĠĠĠĠĠĠĠĠĠĠĠĠ": 5294,
      "ĠNOT": 5295,
      "izations": 5296,
      "Ġwhose": 5297,
      "ĠDecember": 5298,
      "pg": 5299,
      "ĠRepublic": 5300,
      "bu": 5301,
      "sort": 5302,
      "omen": 5303,
      "Ġaltern": 5304,
      "password": 5305,
      "Ġtowards": 5306,
      "ying": 5307,
      "illing": 5308,
      "Ġeffects": 5309,
      "Ġmoving": 5310,
      "Ġvariable": 5311,
      "Ġdetermin": 5312,
      "Ġmulti": 5313,
      "Responder": 5314,
      "inition": 5315,
      "ROR": 5316,
      "Ġrespond": 5317,
      "Ġcarry": 5318,
      "ruit": 5319,
      "ĠObama": 5320,
      "account": 5321,
      "Ġphotos": 5322,
      "Ġinflu": 5323,
      "Ġrequests": 5324,
      "Ġsites": 5325,
      "Fri": 5326,
      "Ġadvant": 5327,
      "Ġmeasure": 5328,
      "arant": 5329,
      "Ġhealthy": 5330,
      "Ġtrip": 5331,
      "ara": 5332,
      "Ġpen": 5333,
      "ondon": 5334,
      "total": 5335,
      "<<": 5336,
      "see": 5337,
      "Ġ\"+": 5338,
      "').": 5339,
      "elcome": 5340,
      "term": 5341,
      "Ġheat": 5342,
      "ĠEvery": 5343,
      "Ġotherwise": 5344,
      "ivil": 5345,
      "rule": 5346,
      "Ġinstitut": 5347,
      "*-": 5348,
      "Ġguid": 5349,
      "ĠMonday": 5350,
      "features": 5351,
      "wide": 5352,
      "ertain": 5353,
      "remove": 5354,
      "ĠInternet": 5355,
      "Ġplot": 5356,
      "\"></": 5357,
      "bt": 5358,
      "Ġreports": 5359,
      "ponent": 5360,
      "]/": 5361,
      "Ġvers": 5362,
      "ĠAut": 5363,
      "Ġplant": 5364,
      "Ġrock": 5365,
      "Ġculture": 5366,
      "Ġwrote": 5367,
      "alog": 5368,
      "Ġplt": 5369,
      "pad": 5370,
      "Ġcalls": 5371,
      "Ġturned": 5372,
      "ulate": 5373,
      "Instance": 5374,
      "BridgeDomain": 5375,
      "family": 5376,
      "ctx": 5377,
      "sequ": 5378,
      "template": 5379,
      "Ġindepend": 5380,
      "height": 5381,
      "Ġvirt": 5382,
      "igr": 5383,
      "Ġstories": 5384,
      "Ġhelps": 5385,
      "ius": 5386,
      "itude": 5387,
      "ĠStreet": 5388,
      "stitute": 5389,
      "aughter": 5390,
      "reduce": 5391,
      "safe": 5392,
      "lement": 5393,
      "Ġtrail": 5394,
      "Ġpages": 5395,
      "ĠSpec": 5396,
      "apes": 5397,
      "ĠKing": 5398,
      "RES": 5399,
      "Ġerrors": 5400,
      "fetch": 5401,
      "Ġdistr": 5402,
      "zen": 5403,
      "Ġcompute": 5404,
      "These": 5405,
      "gu": 5406,
      "ulations": 5407,
      "Ġmachine": 5408,
      "ĠPower": 5409,
      "ĠWell": 5410,
      "ĠAPI": 5411,
      "Ġdepend": 5412,
      "MO": 5413,
      "ĠFire": 5414,
      "rows": 5415,
      "Ġessential": 5416,
      "Ð¾Ð": 5417,
      "rench": 5418,
      "Ġinterested": 5419,
      "Ġwish": 5420,
      "Ġ::": 5421,
      "Ġemployees": 5422,
      "ĠVM": 5423,
      "Ġnearly": 5424,
      "Ġverbose": 5425,
      "oded": 5426,
      "iven": 5427,
      "chan": 5428,
      "ĠDel": 5429,
      "iant": 5430,
      "Ġdegree": 5431,
      "537": 5432,
      "Ġwants": 5433,
      "Ġ2020": 5434,
      "ĠEar": 5435,
      "req": 5436,
      "imin": 5437,
      "Spec": 5438,
      "strip": 5439,
      "ĠDavid": 5440,
      "aled": 5441,
      "ĠLet": 5442,
      "Learner": 5443,
      "Back": 5444,
      "Ġstri": 5445,
      "arden": 5446,
      "indices": 5447,
      "job": 5448,
      "ĠFree": 5449,
      "Ġcontain": 5450,
      "Ġrace": 5451,
      "inds": 5452,
      "ifying": 5453,
      "Ref": 5454,
      "Ġsync": 5455,
      "Ġkeys": 5456,
      "Ġbottom": 5457,
      "Ġutil": 5458,
      "oco": 5459,
      "ĠTechn": 5460,
      "Ġbirth": 5461,
      "Case": 5462,
      "ĠMost": 5463,
      "ĠâĢ¦": 5464,
      "option": 5465,
      "Ġdemand": 5466,
      "rot": 5467,
      "Ġacqu": 5468,
      "Ġexpand": 5469,
      "Ġignore": 5470,
      "Ġ2018": 5471,
      "Ġexpert": 5472,
      "profile": 5473,
      "Ġcoff": 5474,
      "Ġindividuals": 5475,
      "DL": 5476,
      "Per": 5477,
      "serve": 5478,
      "Ġsoft": 5479,
      "Ġ500": 5480,
      "800": 5481,
      "Ġseed": 5482,
      "Ġpaid": 5483,
      "Ġscale": 5484,
      "Ġgrowing": 5485,
      "Ġthreat": 5486,
      "Ġtalking": 5487,
      "aith": 5488,
      "folder": 5489,
      "ĠBro": 5490,
      "ĠWashington": 5491,
      "Ġsurface": 5492,
      "ifications": 5493,
      "Ġdomain": 5494,
      "Ġsuccessfully": 5495,
      "Feb": 5496,
      "stop": 5497,
      "Ġ-*-": 5498,
      "rial": 5499,
      "ĠActive": 5500,
      "`,": 5501,
      "hook": 5502,
      "âĢĿ.": 5503,
      "EO": 5504,
      "ITY": 5505,
      "Ġmapping": 5506,
      "Ġcontaining": 5507,
      "ĠĠĠĠĠĠĠĠĠĠĠĠĠĠĠĠĠĠĠĠĠĠĠĠĠĠĠĠĠĠĠĠĠĠĠĠĠĠĠĠĠĠĠ": 5508,
      "Ġspend": 5509,
      "sid": 5510,
      "Ġliter": 5511,
      "atever": 5512,
      "evelop": 5513,
      "respond": 5514,
      "ĠWin": 5515,
      "ĠLaw": 5516,
      "aste": 5517,
      "Ġspirit": 5518,
      "Ġwife": 5519,
      "bytes": 5520,
      "Ġcertainly": 5521,
      "Ġinform": 5522,
      "show": 5523,
      "ĠEast": 5524,
      "Ġadult": 5525,
      "ulated": 5526,
      "ancing": 5527,
      "Ġfine": 5528,
      "ocation": 5529,
      "clear": 5530,
      "free": 5531,
      "pression": 5532,
      "ously": 5533,
      "initial": 5534,
      "Ġexerc": 5535,
      "iction": 5536,
      "ĠPhil": 5537,
      "house": 5538,
      "Ġdry": 5539,
      "std": 5540,
      "swith": 5541,
      "Ġrelig": 5542,
      "Ġhistor": 5543,
      "LearnerHandler": 5544,
      "Aut": 5545,
      "omer": 5546,
      "ĠHel": 5547,
      "Ġrequirements": 5548,
      "AA": 5549,
      "Ġeat": 5550,
      "Ġevidence": 5551,
      "cgi": 5552,
      "olf": 5553,
      "alled": 5554,
      "Ġmeaning": 5555,
      "Ġalone": 5556,
      "ĠÂ£": 5557,
      ",,": 5558,
      "power": 5559,
      "ÑĤ": 5560,
      "Ġtraditional": 5561,
      "direct": 5562,
      "here": 5563,
      "Ġthous": 5564,
      "Ġreference": 5565,
      "ĠMor": 5566,
      "Index": 5567,
      "Def": 5568,
      "case": 5569,
      "icate": 5570,
      "une": 5571,
      "Ġshown": 5572,
      "non": 5573,
      "Ġconfiguration": 5574,
      "OK": 5575,
      "Ġparticularly": 5576,
      "ĠChe": 5577,
      "datetime": 5578,
      "Ġfat": 5579,
      "undred": 5580,
      "Ġrent": 5581,
      "predict": 5582,
      "Ġrestaur": 5583,
      "Ġequipment": 5584,
      "dest": 5585,
      "Ġprinc": 5586,
      "Ġbeg": 5587,
      "Ġtruth": 5588,
      "Ġarguments": 5589,
      "Ġmiddle": 5590,
      "Account": 5591,
      "eger": 5592,
      "ses": 5593,
      "ĠRuss": 5594,
      "ĠOver": 5595,
      "Ġshoot": 5596,
      "olve": 5597,
      "uda": 5598,
      "Ġpush": 5599,
      "Ġmanager": 5600,
      "Widget": 5601,
      "ago": 5602,
      "Ġ'.": 5603,
      "Co": 5604,
      "draw": 5605,
      "ĠMiss": 5606,
      "Stack": 5607,
      "oken": 5608,
      "Ġanim": 5609,
      "Ġoverall": 5610,
      "Ġschedule": 5611,
      "NE": 5612,
      "sim": 5613,
      "Ġteams": 5614,
      "Ġdirector": 5615,
      "Ġearlier": 5616,
      "Dis": 5617,
      "%(": 5618,
      "Ġnn": 5619,
      "Ġfather": 5620,
      "Ġexam": 5621,
      "Ġfeeling": 5622,
      "ĠUK": 5623,
      "hidden": 5624,
      "entity": 5625,
      "ĠNe": 5626,
      "Ġimg": 5627,
      "Ġgreater": 5628,
      "outer": 5629,
      "uly": 5630,
      "Ġserve": 5631,
      "Ġimmediately": 5632,
      "EE": 5633,
      "Cnxn": 5634,
      "Ġdeveloped": 5635,
      "Ġaspect": 5636,
      "atically": 5637,
      "asc": 5638,
      "Ġnull": 5639,
      "Ġviews": 5640,
      "Ġtree": 5641,
      "ĠIndia": 5642,
      "NIOServerCnxn": 5643,
      "Ġ2019": 5644,
      "Ġprem": 5645,
      "Ġfeet": 5646,
      "Ġnumer": 5647,
      "Ġconstant": 5648,
      "ĠJapan": 5649,
      "Ġspot": 5650,
      "Ġconcept": 5651,
      "cuit": 5652,
      "words": 5653,
      "Ġannounced": 5654,
      "Ġcop": 5655,
      "143": 5656,
      "Ġproduce": 5657,
      "Ġweekend": 5658,
      "zeros": 5659,
      "sn": 5660,
      "ture": 5661,
      "Ġcapital": 5662,
      "Ġroute": 5663,
      "ald": 5664,
      "ĠLin": 5665,
      "assertTrue": 5666,
      "ĠĠĠĠĠĠĠĠĠĠĠĠĠĠĠĠĠĠĠĠĠĠĠĠĠĠ": 5667,
      "Ġhous": 5668,
      "ĠPal": 5669,
      "Ġbasic": 5670,
      "80211": 5671,
      "]))": 5672,
      "ĠCollege": 5673,
      "except": 5674,
      "Ġpurpose": 5675,
      "Ġrecords": 5676,
      "mem": 5677,
      "ula": 5678,
      "chain": 5679,
      "ota": 5680,
      "Ġachieve": 5681,
      "Py": 5682,
      "aight": 5683,
      "Ġexploration": 5684,
      "Ġowners": 5685,
      "AGE": 5686,
      "Ġbehavior": 5687,
      "ODO": 5688,
      "Ġlinks": 5689,
      "Ġbasis": 5690,
      "ĠPort": 5691,
      "osing": 5692,
      "ĠDisconnect": 5693,
      "Ġsolutions": 5694,
      "lambda": 5695,
      "Ġreve": 5696,
      "Ġjobs": 5697,
      "ĠFebruary": 5698,
      "ceeded": 5699,
      "Store": 5700,
      "Ġenv": 5701,
      "Ġactions": 5702,
      "pipeline": 5703,
      "ĠII": 5704,
      "Ġeight": 5705,
      "Ġcharge": 5706,
      "Ġobtain": 5707,
      "ĠBusiness": 5708,
      "web": 5709,
      "Ġmaster": 5710,
      "icon": 5711,
      "ĠATT": 5712,
      "Ġcomments": 5713,
      "Ġcloud": 5714,
      "({": 5715,
      "screen": 5716,
      "Ġcouldn": 5717,
      "Ġparameter": 5718,
      "Image": 5719,
      "Ġgirls": 5720,
      "Ġ----------": 5721,
      "domain": 5722,
      "Ġrender": 5723,
      "Ġprofile": 5724,
      "DO": 5725,
      "Ġletter": 5726,
      "Ġpromot": 5727,
      "mand": 5728,
      "sych": 5729,
      "Ġbusinesses": 5730,
      "ĠLondon": 5731,
      "Ġvoice": 5732,
      "Ġflag": 5733,
      "Ġcamera": 5734,
      "iding": 5735,
      "ĠOther": 5736,
      "Ġstar": 5737,
      "angle": 5738,
      "ursor": 5739,
      "ici": 5740,
      "ĠChina": 5741,
      "Ġcoffee": 5742,
      "onstr": 5743,
      "Ġnorm": 5744,
      "ims": 5745,
      "temp": 5746,
      "Ġpicture": 5747,
      "Ġowner": 5748,
      "Ġwall": 5749,
      "ĠRom": 5750,
      "Ġempty": 5751,
      "Sec": 5752,
      "hol": 5753,
      "Ġsecret": 5754,
      "ALL": 5755,
      "servation": 5756,
      "Ġfigure": 5757,
      "ĠParameters": 5758,
      "ãĥ": 5759,
      "edge": 5760,
      "Ġopportunities": 5761,
      "schema": 5762,
      "ĠIndian": 5763,
      "ĠIgnoring": 5764,
      "Ġwarning": 5765,
      "ĠWhite": 5766,
      "Ġ404": 5767,
      "126": 5768,
      "Ġbeliev": 5769,
      "Scope": 5770,
      "des": 5771,
      "common": 5772,
      "Ġappropriate": 5773,
      "Ġbillion": 5774,
      "ashion": 5775,
      "window": 5776,
      "Ġbound": 5777,
      "2012": 5778,
      "Ġdisease": 5779,
      "Ġbackground": 5780,
      "cur": 5781,
      "Ġcit": 5782,
      "Ġfan": 5783,
      "ĠEven": 5784,
      "Ġ2007": 5785,
      "Ġnor": 5786,
      "Ġsymbol": 5787,
      "Ġtemp": 5788,
      "handler": 5789,
      "Ġsem": 5790,
      "Ġevalu": 5791,
      "orrow": 5792,
      "Ġstraight": 5793,
      "Ġagreed": 5794,
      "DA": 5795,
      "limit": 5796,
      "exists": 5797,
      "timeout": 5798,
      "Ġslight": 5799,
      "Ġincreasing": 5800,
      "Ġglass": 5801,
      "ros": 5802,
      "Ġcontr": 5803,
      "ĠDict": 5804,
      "Ġagre": 5805,
      "Ġcommerc": 5806,
      "Ġaccur": 5807,
      "iable": 5808,
      "eria": 5809,
      "Ġcache": 5810,
      "Ġseven": 5811,
      "Ġplanning": 5812,
      "ĠMake": 5813,
      "groups": 5814,
      "AK": 5815,
      "Ab": 5816,
      "Ġquant": 5817,
      "ĠAssociation": 5818,
      "left": 5819,
      "entry": 5820,
      "Ġ<=": 5821,
      "Ġeye": 5822,
      "anned": 5823,
      "lor": 5824,
      "tel": 5825,
      "Ġdictionary": 5826,
      "Please": 5827,
      "Ġfarm": 5828,
      "ĠTuesday": 5829,
      "uman": 5830,
      ").__": 5831,
      "Ġemb": 5832,
      "Ġfunctions": 5833,
      "Ġoutputs": 5834,
      "ĠCCFile": 5835,
      "ayer": 5836,
      "Ġattract": 5837,
      "Ġapplications": 5838,
      "bon": 5839,
      "metric": 5840,
      "rivacy": 5841,
      "ĠTex": 5842,
      "rief": 5843,
      "ampl": 5844,
      "00000000": 5845,
      "ĠDisconnecting": 5846,
      "ÑĢ": 5847,
      "tags": 5848,
      "ĠGreen": 5849,
      "Ġgrand": 5850,
      "Ġcritical": 5851,
      "volume": 5852,
      "Code": 5853,
      "lass": 5854,
      "ĠRock": 5855,
      "Ġsequence": 5856,
      "Ġpayload": 5857,
      "/{": 5858,
      "Ġ2227": 5859,
      "Ġpair": 5860,
      "semb": 5861,
      "Ġmoved": 5862,
      "agon": 5863,
      "____": 5864,
      "Ġassess": 5865,
      "Ġ35": 5866,
      "intent": 5867,
      "Ġgenerate": 5868,
      "dims": 5869,
      "Ġfans": 5870,
      "porate": 5871,
      "iny": 5872,
      "Ġpet": 5873,
      "Ġprices": 5874,
      "myid": 5875,
      "Ġcast": 5876,
      "154": 5877,
      "180": 5878,
      "Ġfamilies": 5879,
      "Ġwarn": 5880,
      "bal": 5881,
      "Ġincreased": 5882,
      "Ġaffect": 5883,
      "shot": 5884,
      "Ġappre": 5885,
      "Ġinvestment": 5886,
      "Here": 5887,
      "ĠMag": 5888,
      "ĠPaul": 5889,
      "Ġexcellent": 5890,
      "Ġmiles": 5891,
      "Fail": 5892,
      "Meta": 5893,
      "ban": 5894,
      "mes": 5895,
      "Ġgas": 5896,
      "unction": 5897,
      "ĠAv": 5898,
      "Ġruns": 5899,
      "isode": 5900,
      "Ġfloor": 5901,
      "Ġfederal": 5902,
      "ĠAM": 5903,
      "evice": 5904,
      "ĠANY": 5905,
      "ĠMichael": 5906,
      "ĠCreate": 5907,
      "Can": 5908,
      "Ġadjust": 5909,
      "Ġhappened": 5910,
      "Ġselected": 5911,
      "Ġrates": 5912,
      "Ġquarter": 5913,
      "INT": 5914,
      "]['": 5915,
      "Ġforms": 5916,
      "Last": 5917,
      "Ġmicro": 5918,
      "Ġconstruction": 5919,
      "users": 5920,
      "Ġconsult": 5921,
      "Ġresponsible": 5922,
      "cum": 5923,
      "ustain": 5924,
      "GB": 5925,
      "mar": 5926,
      "layers": 5927,
      "Ġpoor": 5928,
      "Ġsand": 5929,
      "ĠCourt": 5930,
      "bre": 5931,
      "ĠRef": 5932,
      "Ġgoals": 5933,
      "azon": 5934,
      "NA": 5935,
      "Ġwhe": 5936,
      "Ġemot": 5937,
      "Ġguy": 5938,
      "POST": 5939,
      "Ġbrow": 5940,
      "242": 5941,
      "Ġextrem": 5942,
      "offset": 5943,
      "Ġaward": 5944,
      "Ġadvert": 5945,
      "KS": 5946,
      "PRO": 5947,
      "ribe": 5948,
      "Ġfunc": 5949,
      "Ġcorrespond": 5950,
      "tmp": 5951,
      "Ġoffered": 5952,
      "Ð½": 5953,
      "leg": 5954,
      "Ġunderstanding": 5955,
      "Ġbenefit": 5956,
      "CoreMedia": 5957,
      "TH": 5958,
      "embed": 5959,
      "Ġpieces": 5960,
      "Ġchurch": 5961,
      "Ġopin": 5962,
      "Ġdestroy": 5963,
      ".')": 5964,
      "Now": 5965,
      "latest": 5966,
      "Ġfem": 5967,
      "Ġwild": 5968,
      "207": 5969,
      "Ġincome": 5970,
      "ĠGreat": 5971,
      "Ġdefined": 5972,
      "Ġenumer": 5973,
      "Message": 5974,
      "private": 5975,
      "Ġtransfer": 5976,
      "Ġannual": 5977,
      "Ġeconomy": 5978,
      "Be": 5979,
      "ĠCurrent": 5980,
      "Ġfollowed": 5981,
      "Ġalthough": 5982,
      "full": 5983,
      "ui": 5984,
      "urt": 5985,
      "Ġenh": 5986,
      "Ġcoll": 5987,
      "ao": 5988,
      "ran": 5989,
      "Ġconvers": 5990,
      "Ġtemplate": 5991,
      "ABLE": 5992,
      "','": 5993,
      "numpy": 5994,
      "ronic": 5995,
      "Ġsatisf": 5996,
      "ĠURL": 5997,
      "Ġing": 5998,
      "Ġsurv": 5999,
      "Ġphoto": 6000,
      "Ġder": 6001,
      "ĠMod": 6002,
      "Ġshared": 6003,
      "Ġbul": 6004,
      "Ġbaby": 6005,
      "ĠTODO": 6006,
      "Ġdisk": 6007,
      "cpu": 6008,
      "Ġedge": 6009,
      "ĠGeneral": 6010,
      "Table": 6011,
      "channels": 6012,
      "Ġhasattr": 6013,
      "Ġdirection": 6014,
      "allet": 6015,
      "ĠStart": 6016,
      "csv": 6017,
      "iation": 6018,
      "001": 6019,
      "Ġgone": 6020,
      "Ġimm": 6021,
      "229": 6022,
      "Ġscience": 6023,
      "urrency": 6024,
      "Output": 6025,
      "gor": 6026,
      "ario": 6027,
      "Ġded": 6028,
      "occup": 6029,
      "Ġspread": 6030,
      "false": 6031,
      "sd": 6032,
      "andas": 6033,
      "ATA": 6034,
      "reshold": 6035,
      "ĠAND": 6036,
      "handle": 6037,
      "ression": 6038,
      "Ġmilitary": 6039,
      "Ġschools": 6040,
      "uthor": 6041,
      "ĠClass": 6042,
      "?\"": 6043,
      "('/": 6044,
      "Ġpartner": 6045,
      "Ġlargest": 6046,
      "gp": 6047,
      "Ġpropos": 6048,
      "icode": 6049,
      "QuorumPeer": 6050,
      "ĠDrop": 6051,
      "Hel": 6052,
      "oe": 6053,
      "epoch": 6054,
      "Ġhelped": 6055,
      "Ġcoordin": 6056,
      "cut": 6057,
      "Ġtrou": 6058,
      "ĠBook": 6059,
      "external": 6060,
      "Ġdelivery": 6061,
      "Ġpytest": 6062,
      "icensed": 6063,
      "BU": 6064,
      "]):": 6065,
      "fast": 6066,
      "gers": 6067,
      "awn": 6068,
      "icial": 6069,
      "igger": 6070,
      "Ġpopulation": 6071,
      "SA": 6072,
      "Ġcaught": 6073,
      "225": 6074,
      "Ġdefinitely": 6075,
      "Act": 6076,
      "Fil": 6077,
      "eval": 6078,
      "umps": 6079,
      "ipping": 6080,
      "prec": 6081,
      "Ġsupply": 6082,
      "Ġcommercial": 6083,
      "js": 6084,
      "aked": 6085,
      "Ġidx": 6086,
      "Ġreasons": 6087,
      "gest": 6088,
      "ĠBel": 6089,
      "FL": 6090,
      "Ġcomb": 6091,
      "Item": 6092,
      "Task": 6093,
      "Ġeth": 6094,
      "Ġahead": 6095,
      "ĠĠĠĠĠĠĠĠĠĠĠĠĠĠĠĠĠĠĠĠĠĠ": 6096,
      "ĠRich": 6097,
      "Char": 6098,
      "bas": 6099,
      "ĠLO": 6100,
      "outputs": 6101,
      "Ġdamage": 6102,
      "Ġhundred": 6103,
      "185": 6104,
      "================================": 6105,
      "9000": 6106,
      "Ġlov": 6107,
      "ĠJes": 6108,
      "stract": 6109,
      "ĠResearch": 6110,
      "capture": 6111,
      "unn": 6112,
      "Ġperhaps": 6113,
      "Ġtraff": 6114,
      "grade": 6115,
      "API": 6116,
      "ĠFlor": 6117,
      "Ġmill": 6118,
      "156": 6119,
      "BA": 6120,
      "Ġrev": 6121,
      "Ġdoctor": 6122,
      "Ġbill": 6123,
      "ĠOrder": 6124,
      "ĠInformation": 6125,
      "Ġkept": 6126,
      "Ġbur": 6127,
      "docs": 6128,
      "Ġleader": 6129,
      "Ġmetadata": 6130,
      "Date": 6131,
      "under": 6132,
      "ĠNetwork": 6133,
      "Ġprefix": 6134,
      "ĠProgram": 6135,
      "ĠAppleWebKit": 6136,
      "Ed": 6137,
      "fill": 6138,
      "sure": 6139,
      "states": 6140,
      "Ġenable": 6141,
      "score": 6142,
      "etri": 6143,
      "Ġstress": 6144,
      "\",\"": 6145,
      "Ġscr": 6146,
      "ologies": 6147,
      "called": 6148,
      "vars": 6149,
      "success": 6150,
      "policy": 6151,
      "Ġdir": 6152,
      "Ġparse": 6153,
      "Ġbrain": 6154,
      "Ġcru": 6155,
      "ighest": 6156,
      "VAL": 6157,
      "ige": 6158,
      "application": 6159,
      "ĠEach": 6160,
      "encode": 6161,
      "sql": 6162,
      "Ġsociety": 6163,
      "itect": 6164,
      "ecycle": 6165,
      "Ġcold": 6166,
      "asy": 6167,
      "Ġserved": 6168,
      "ĠCanada": 6169,
      "ĠReview": 6170,
      "errors": 6171,
      "Ġpatient": 6172,
      "uffer": 6173,
      "Ġrestrict": 6174,
      "Post": 6175,
      "ĠHome": 6176,
      "akers": 6177,
      "rpc": 6178,
      "Ġip": 6179,
      "isions": 6180,
      "ĠAnt": 6181,
      "ĠDevelop": 6182,
      "ĠThursday": 6183,
      "weights": 6184,
      "ĠCode": 6185,
      "Ġprop": 6186,
      "Ġwear": 6187,
      "Ġcategory": 6188,
      "ĠPublic": 6189,
      "Do": 6190,
      "Ġdied": 6191,
      "Ġaren": 6192,
      "Ġenumerate": 6193,
      "Ġmath": 6194,
      "Ġcompar": 6195,
      "Ġopening": 6196,
      "Ġbudget": 6197,
      "rr": 6198,
      "ĠTimes": 6199,
      "ĠDE": 6200,
      ">]-": 6201,
      "ãĤ": 6202,
      "144": 6203,
      "ĠServices": 6204,
      "atively": 6205,
      "iling": 6206,
      "],[": 6207,
      "Hand": 6208,
      "Vis": 6209,
      "Ġlisted": 6210,
      "matrix": 6211,
      "ky": 6212,
      "Ġloved": 6213,
      "Ġunits": 6214,
      "orial": 6215,
      "Ġuseful": 6216,
      "Ġchallenge": 6217,
      "Ġ',": 6218,
      "prot": 6219,
      "ĠiPhone": 6220,
      "Any": 6221,
      "ĠGovern": 6222,
      "Ġbalance": 6223,
      "ste": 6224,
      "images": 6225,
      "128": 6226,
      "=['": 6227,
      "Ġtruly": 6228,
      "ĠJack": 6229,
      "well": 6230,
      "ETE": 6231,
      "care": 6232,
      "Ġplus": 6233,
      "Ġtyping": 6234,
      "yal": 6235,
      "Ġcoach": 6236,
      "vention": 6237,
      "Ġconnected": 6238,
      "abilities": 6239,
      "unte": 6240,
      "Ġalbum": 6241,
      "ĠEv": 6242,
      "setter": 6243,
      "While": 6244,
      "ouncil": 6245,
      "friend": 6246,
      "Ġscient": 6247,
      "venue": 6248,
      "Ġeasier": 6249,
      "ĠCreat": 6250,
      "Ġdemonstr": 6251,
      "ĠBoard": 6252,
      "DNS": 6253,
      "Ġchem": 6254,
      "Le": 6255,
      "ĠLog": 6256,
      "aints": 6257,
      "ittest": 6258,
      "rael": 6259,
      "feature": 6260,
      "related": 6261,
      "Ġdetermine": 6262,
      "fin": 6263,
      "Ġutils": 6264,
      "apy": 6265,
      "Execut": 6266,
      "timestamp": 6267,
      "TIME": 6268,
      "Module": 6269,
      "SL": 6270,
      "Ġcfg": 6271,
      "requests": 6272,
      "Ġairb": 6273,
      "Ġther": 6274,
      "occupied": 6275,
      "QL": 6276,
      "xim": 6277,
      "Ġpaint": 6278,
      "late": 6279,
      "Ġhus": 6280,
      "Build": 6281,
      "auto": 6282,
      "ĠSuper": 6283,
      "463": 6284,
      "Ġappears": 6285,
      "Ġlaunch": 6286,
      "Ġstrength": 6287,
      "Ġut": 6288,
      "ĠTO": 6289,
      "PD": 6290,
      "UpdateAgent": 6291,
      "variable": 6292,
      "Ġefforts": 6293,
      "Ġonto": 6294,
      "Ġvehicle": 6295,
      "uate": 6296,
      "Ġguide": 6297,
      "Ġscen": 6298,
      "Ġsurround": 6299,
      "ucket": 6300,
      "Ġestim": 6301,
      "othing": 6302,
      "decode": 6303,
      "pp": 6304,
      "Ġvariables": 6305,
      "complete": 6306,
      "Don": 6307,
      "dig": 6308,
      "dated": 6309,
      "how": 6310,
      "olic": 6311,
      "sq": 6312,
      "ager": 6313,
      "103": 6314,
      "Ġsuc": 6315,
      "Ġmechan": 6316,
      "Ġinterval": 6317,
      "Ġdeser": 6318,
      "FR": 6319,
      "lv": 6320,
      "icies": 6321,
      "ĠDuring": 6322,
      "ĠVersion": 6323,
      "Ġwat": 6324,
      "ĠEX": 6325,
      "Ġadvice": 6326,
      "Ġstudies": 6327,
      "Ġraised": 6328,
      "Ġtags": 6329,
      "hu": 6330,
      "rm": 6331,
      "Ġsplit": 6332,
      "ĠFrench": 6333,
      "Ġoffset": 6334,
      "Ġguys": 6335,
      "Ġmovement": 6336,
      "Ġmail": 6337,
      "Ġcontinued": 6338,
      "Ġcolors": 6339,
      "Ġauto": 6340,
      "Ġremoved": 6341,
      "Ġsale": 6342,
      "Ġlicense": 6343,
      "idge": 6344,
      "Ġclin": 6345,
      "tuple": 6346,
      "Ġtal": 6347,
      "Ġrepl": 6348,
      "BLE": 6349,
      "itar": 6350,
      "agent": 6351,
      "android": 6352,
      "isation": 6353,
      "Ġgift": 6354,
      "ERS": 6355,
      "Ġcompared": 6356,
      "Source": 6357,
      "ĠSat": 6358,
      "gorith": 6359,
      "Ġborn": 6360,
      "379": 6361,
      "Max": 6362,
      "Ġtoward": 6363,
      "Ġnov": 6364,
      "olar": 6365,
      "191": 6366,
      "ĠDefault": 6367,
      "Ġâ": 6368,
      "ĠTom": 6369,
      "ĠBase": 6370,
      "Ġgenerally": 6371,
      "ĠOffice": 6372,
      "optional": 6373,
      "uous": 6374,
      "Ġmessages": 6375,
      "Ġlots": 6376,
      "Ġadvantage": 6377,
      "Ġcoding": 6378,
      "access": 6379,
      "Ġcancer": 6380,
      "Ġlarger": 6381,
      "ĠMart": 6382,
      "Ġunl": 6383,
      "Ġgenerated": 6384,
      "ĠClient": 6385,
      "Ġextension": 6386,
      "egr": 6387,
      "Ġ---------------------------------": 6388,
      "Ġ'\\": 6389,
      "apers": 6390,
      "ounce": 6391,
      "ĠWednesday": 6392,
      "ĠTotal": 6393,
      "ART": 6394,
      "Ġoccas": 6395,
      "Ġ):": 6396,
      "Ġpayment": 6397,
      "TestCase": 6398,
      "Ġkitchen": 6399,
      "ĠBu": 6400,
      "ĠHot": 6401,
      "ĠEst": 6402,
      "145": 6403,
      "essions": 6404,
      "prov": 6405,
      "Ġoffering": 6406,
      "Ġupdates": 6407,
      "support": 6408,
      "Ġguarant": 6409,
      "Ġpowerful": 6410,
      "ouble": 6411,
      "Ġlearned": 6412,
      "ĠPython": 6413,
      "Ġjournal": 6414,
      "Ġworkers": 6415,
      "poses": 6416,
      "Ġtrend": 6417,
      "Ġcatch": 6418,
      "Ġcash": 6419,
      "!\"": 6420,
      "Ġesc": 6421,
      "outs": 6422,
      "Ġtopic": 6423,
      "Ġhotel": 6424,
      "Bl": 6425,
      "ĠCouncil": 6426,
      "Ġiniti": 6427,
      "Ġpictures": 6428,
      "custom": 6429,
      "Prot": 6430,
      "Ġprotection": 6431,
      "Dep": 6432,
      "Some": 6433,
      "ä¸": 6434,
      "asure": 6435,
      "ette": 6436,
      "ĠCong": 6437,
      "park": 6438,
      "ĠWhy": 6439,
      "ĠTexas": 6440,
      "inv": 6441,
      "Ġflat": 6442,
      "Processor": 6443,
      "ĠConnect": 6444,
      "Ġcalcul": 6445,
      "enance": 6446,
      "Ġwl": 6447,
      "ums": 6448,
      "Ġjour": 6449,
      "ĠĠĠĠĠĠĠĠĠĠĠĠĠĠĠĠĠĠĠĠĠĠĠĠĠĠĠĠĠ": 6450,
      "display": 6451,
      "Ġregarding": 6452,
      "Ġinstruct": 6453,
      "ĠCPU": 6454,
      "ĠPath": 6455,
      "ĠBig": 6456,
      "ĠGold": 6457,
      "isher": 6458,
      "ĠOnly": 6459,
      "ĠCompany": 6460,
      "za": 6461,
      "essor": 6462,
      "ponents": 6463,
      "Ġicon": 6464,
      "iber": 6465,
      "Ġhaven": 6466,
      "locator": 6467,
      "Ġmaximum": 6468,
      "which": 6469,
      "Network": 6470,
      "Tag": 6471,
      "after": 6472,
      "allel": 6473,
      "mult": 6474,
      "ĠEm": 6475,
      "even": 6476,
      "iled": 6477,
      "Parser": 6478,
      "gt": 6479,
      "Ġdoll": 6480,
      "Ġweather": 6481,
      "username": 6482,
      ":-": 6483,
      "ools": 6484,
      "eader": 6485,
      "seud": 6486,
      "clusive": 6487,
      "Ġwind": 6488,
      "ĠSy": 6489,
      "Ġwouldn": 6490,
      "Ġholid": 6491,
      "Ġ//": 6492,
      "fail": 6493,
      "ĠChristian": 6494,
      "Ġinternal": 6495,
      "rian": 6496,
      "Ġobvious": 6497,
      "DIR": 6498,
      "baid": 6499,
      "squ": 6500,
      "ĠProject": 6501,
      "Eng": 6502,
      "aro": 6503,
      "Ġhighest": 6504,
      "ĠPC": 6505,
      "cles": 6506,
      "ĠEuropean": 6507,
      "aming": 6508,
      "ament": 6509,
      "click": 6510,
      "lien": 6511,
      "rees": 6512,
      "Ġmut": 6513,
      "Ġrich": 6514,
      "Ġscene": 6515,
      "Create": 6516,
      "Ġhar": 6517,
      "ĠMet": 6518,
      "iller": 6519,
      "Ġmeant": 6520,
      "optim": 6521,
      "ĠAustralia": 6522,
      "Ġappreci": 6523,
      "she": 6524,
      "Ñģ": 6525,
      "ĠMany": 6526,
      "ĠBack": 6527,
      "Ġpeace": 6528,
      "Ġbuck": 6529,
      "iverse": 6530,
      "char": 6531,
      "Stat": 6532,
      "ULL": 6533,
      "DP": 6534,
      "future": 6535,
      "spe": 6536,
      "ulty": 6537,
      "ĠJames": 6538,
      "ĠThom": 6539,
      "Box": 6540,
      "dy": 6541,
      "rated": 6542,
      "ĠAnn": 6543,
      "reme": 6544,
      "ĠHE": 6545,
      "Software": 6546,
      "Database": 6547,
      "oles": 6548,
      "Ġhappens": 6549,
      "ĠIsland": 6550,
      "elta": 6551,
      "originated": 6552,
      "Ġnut": 6553,
      "ĠOld": 6554,
      "Result": 6555,
      "itors": 6556,
      "Ġgar": 6557,
      "ĠPO": 6558,
      "Ġamb": 6559,
      "Health": 6560,
      "ĠPay": 6561,
      "icenses": 6562,
      "cos": 6563,
      "lers": 6564,
      "ategories": 6565,
      "Ġselection": 6566,
      "aud": 6567,
      "cr": 6568,
      "SION": 6569,
      "Ġcounter": 6570,
      "imb": 6571,
      "Ġstarts": 6572,
      "Ġinvestig": 6573,
      "Interface": 6574,
      "Ġairbears": 6575,
      "ĠPack": 6576,
      "ĠEduc": 6577,
      "Ġgrant": 6578,
      "ĠSeries": 6579,
      "Ġinstalled": 6580,
      "Ġclaims": 6581,
      "32778": 6582,
      "_-": 6583,
      "Ġagent": 6584,
      "Ġtend": 6585,
      "Ġpadding": 6586,
      "Ġhospital": 6587,
      "Ġgather": 6588,
      "ĠFe": 6589,
      "convert": 6590,
      "Ġthank": 6591,
      "Ġbright": 6592,
      "Ġcentury": 6593,
      "ĠBritish": 6594,
      "uing": 6595,
      "Ġwed": 6596,
      "Ġdating": 6597,
      "119": 6598,
      "Ġrot": 6599,
      "ĠDesign": 6600,
      "Me": 6601,
      "Wake": 6602,
      "ĠĠĠĠĠĠĠĠĠĠĠĠĠĠĠĠĠĠĠĠĠĠĠĠĠĠĠĠĠĠĠĠĠĠĠĠĠĠĠĠ": 6603,
      "ĠProcess": 6604,
      "Ġincor": 6605,
      "_(": 6606,
      "Ġ10000": 6607,
      "Ġstation": 6608,
      "Ġorganizations": 6609,
      "ĠDemocr": 6610,
      "316": 6611,
      "ĠBest": 6612,
      "Ġhelping": 6613,
      "Ġtick": 6614,
      "Ġfaith": 6615,
      "pred": 6616,
      "azine": 6617,
      "ARE": 6618,
      "Load": 6619,
      "PAT": 6620,
      "mac": 6621,
      "Ġcalling": 6622,
      "Ġfactors": 6623,
      "Ġzip": 6624,
      "300": 6625,
      "Raises": 6626,
      "Ġattend": 6627,
      "Control": 6628,
      "Ġidentity": 6629,
      "Ġconstruct": 6630,
      "cluster": 6631,
      "ĠRoad": 6632,
      "hy": 6633,
      "109": 6634,
      "Ġzero": 6635,
      ".'": 6636,
      "oti": 6637,
      "ĠDan": 6638,
      "Ġsecure": 6639,
      "pet": 6640,
      "Ġinternet": 6641,
      "Ġ90": 6642,
      "uri": 6643,
      "ĠWIT": 6644,
      "###": 6645,
      "ĠGood": 6646,
      "KEY": 6647,
      "istance": 6648,
      "cons": 6649,
      "ĠMarket": 6650,
      "argin": 6651,
      "Ġsets": 6652,
      "Ġsweet": 6653,
      "help": 6654,
      "Ġpow": 6655,
      "icious": 6656,
      "ĠForm": 6657,
      "ellig": 6658,
      "product": 6659,
      "reshape": 6660,
      "thread": 6661,
      "Ġadding": 6662,
      "Ġfactor": 6663,
      "Area": 6664,
      "ESS": 6665,
      "lam": 6666,
      "Ġburn": 6667,
      "Ġremains": 6668,
      "ACK": 6669,
      "zone": 6670,
      "161": 6671,
      "Ġolder": 6672,
      "Ġaudience": 6673,
      "Ġforget": 6674,
      "ĠNote": 6675,
      "Ġdocuments": 6676,
      "ĠChristmas": 6677,
      "Ġicmp": 6678,
      "bolt": 6679,
      "units": 6680,
      "hens": 6681,
      "Ġproduced": 6682,
      "ĠIsrael": 6683,
      "WS": 6684,
      "rey": 6685,
      "Ġwine": 6686,
      "endar": 6687,
      "Ġcreative": 6688,
      "Ġhusband": 6689,
      "Ġwhatever": 6690,
      "platform": 6691,
      "Ġarriv": 6692,
      "Ġknows": 6693,
      "ifecycle": 6694,
      "150": 6695,
      "Ġseeing": 6696,
      "apture": 6697,
      "Ġmonitoring": 6698,
      "ialog": 6699,
      "ĠClub": 6700,
      "Ġpros": 6701,
      "Ġ45": 6702,
      "NN": 6703,
      "fd": 6704,
      "Ġton": 6705,
      "Ġestablished": 6706,
      "Ġdescribed": 6707,
      "Rel": 6708,
      "Ġfalse": 6709,
      "Ġboy": 6710,
      "Ġfear": 6711,
      "Ġ42": 6712,
      "Ġdistance": 6713,
      "ii": 6714,
      "Ġcmd": 6715,
      "ĠAL": 6716,
      "ideos": 6717,
      "login": 6718,
      "captureLog": 6719,
      "Ġreject": 6720,
      "anta": 6721,
      "Ġfab": 6722,
      "Ġdu": 6723,
      "Ġsty": 6724,
      "Ġconference": 6725,
      "Ġheavy": 6726,
      "osen": 6727,
      "obs": 6728,
      "bb": 6729,
      "Ġfant": 6730,
      "Ġbecomes": 6731,
      "IF": 6732,
      "Ġang": 6733,
      "Ġtherefore": 6734,
      "Ġdepth": 6735,
      "tree": 6736,
      "insert": 6737,
      "ĠMount": 6738,
      "ashboard": 6739,
      "Array": 6740,
      "pective": 6741,
      "Ġguess": 6742,
      "Ġearth": 6743,
      "Ġdropped": 6744,
      "Ġwonderful": 6745,
      "ĠCr": 6746,
      "emp": 6747,
      "Ġappoint": 6748,
      "ĠFlorida": 6749,
      "style": 6750,
      "Ġapplicable": 6751,
      "SP": 6752,
      "Ġ211": 6753,
      "Ġplaced": 6754,
      "equ": 6755,
      "environ": 6756,
      "Ġexists": 6757,
      "cn": 6758,
      "Ġlibrary": 6759,
      "sym": 6760,
      "ĠTypeError": 6761,
      "Ġnegative": 6762,
      "ĠDown": 6763,
      "Ġseemed": 6764,
      "ocoa": 6765,
      "']:": 6766,
      "Ġflex": 6767,
      "âĢĿ,": 6768,
      "Thread": 6769,
      "weet": 6770,
      "front": 6771,
      "execute": 6772,
      "ĠId": 6773,
      "comment": 6774,
      "antic": 6775,
      "erman": 6776,
      "ĠIO": 6777,
      "ĠSup": 6778,
      "ford": 6779,
      "ĠRob": 6780,
      "Ġcentral": 6781,
      "ĠProf": 6782,
      "pository": 6783,
      "Ġstick": 6784,
      "Ġrare": 6785,
      "Ġcovered": 6786,
      "Size": 6787,
      "ĠBlue": 6788,
      "ography": 6789,
      "ĠSpr": 6790,
      "Ġfee": 6791,
      "]],": 6792,
      "Ġextremely": 6793,
      "_-<": 6794,
      "TO": 6795,
      "Tel": 6796,
      "THE": 6797,
      "Ġcv": 6798,
      "Ġimpress": 6799,
      "Ġcitiz": 6800,
      "igration": 6801,
      "ĠSur": 6802,
      "ĠBre": 6803,
      "grid": 6804,
      "ucky": 6805,
      "Rep": 6806,
      "Ġdaughter": 6807,
      "ĠPress": 6808,
      "aine": 6809,
      "ensity": 6810,
      ",'": 6811,
      "MM": 6812,
      "WOR": 6813,
      "pay": 6814,
      "urb": 6815,
      "ĠBank": 6816,
      "assertRaises": 6817,
      "Ġreality": 6818,
      "iques": 6819,
      "Ġglob": 6820,
      "ĠManagement": 6821,
      "disk": 6822,
      "Ġgun": 6823,
      "cing": 6824,
      "while": 6825,
      "callback": 6826,
      "Min": 6827,
      "Ġhook": 6828,
      "ĠCap": 6829,
      "SN": 6830,
      "rier": 6831,
      "Ġhomes": 6832,
      "EC": 6833,
      "det": 6834,
      "aml": 6835,
      "unately": 6836,
      "berg": 6837,
      "Ġdriving": 6838,
      "Lifecycle": 6839,
      "Ġsports": 6840,
      "Ġfurn": 6841,
      "ĠMal": 6842,
      "ĠCommission": 6843,
      "Ġminimum": 6844,
      "Ġafford": 6845,
      "Ġbroadcast": 6846,
      "Ġextract": 6847,
      "Ġgeneration": 6848,
      "Ġincred": 6849,
      "ĠJesus": 6850,
      "Wr": 6851,
      "ston": 6852,
      "Ġcollab": 6853,
      "pare": 6854,
      "ï¼": 6855,
      "ona": 6856,
      "ĠSince": 6857,
      "ĠPOS": 6858,
      "123": 6859,
      "visor": 6860,
      "Ġfinding": 6861,
      "210": 6862,
      "dot": 6863,
      "rd": 6864,
      "Ġcrow": 6865,
      "Ġdream": 6866,
      "Stream": 6867,
      "Ġbow": 6868,
      "Ġ\"/": 6869,
      "Ġbath": 6870,
      "DB": 6871,
      "ĠTor": 6872,
      "121": 6873,
      "reek": 6874,
      "ĠQQ": 6875,
      "ĠChurch": 6876,
      "inese": 6877,
      "Ġsolid": 6878,
      "ae": 6879,
      "ested": 6880,
      "usr": 6881,
      "ĠOper": 6882,
      "Ġmanage": 6883,
      "Ġelectric": 6884,
      "Ġtraffic": 6885,
      "116": 6886,
      "uint": 6887,
      "SU": 6888,
      "ĠMax": 6889,
      "ĠError": 6890,
      "Ġchallenges": 6891,
      "Session": 6892,
      "ĠLife": 6893,
      "Ġdecor": 6894,
      "Ġkeeping": 6895,
      "ĠOnce": 6896,
      "ĠCommit": 6897,
      "ASS": 6898,
      "ĠPlan": 6899,
      "cert": 6900,
      "sey": 6901,
      "ICE": 6902,
      "ĠServer": 6903,
      "></": 6904,
      "inf": 6905,
      "onym": 6906,
      "ded": 6907,
      "oy": 6908,
      "ĠTop": 6909,
      "flict": 6910,
      "Ġbiggest": 6911,
      "Ġcivil": 6912,
      "Ġthus": 6913,
      "Ġsuppl": 6914,
      "Ġmist": 6915,
      "omb": 6916,
      "ĠBecause": 6917,
      "Ġ36": 6918,
      "paths": 6919,
      "Ġstandards": 6920,
      "1000": 6921,
      "rank": 6922,
      "ĠIT": 6923,
      "Ġevening": 6924,
      "GE": 6925,
      "home": 6926,
      "icago": 6927,
      "Ġ'_": 6928,
      "139": 6929,
      "evision": 6930,
      "Ġembed": 6931,
      "ummy": 6932,
      "Ġfeedback": 6933,
      "Ġudp": 6934,
      "Ġbeat": 6935,
      "usion": 6936,
      "Ġdisable": 6937,
      "ĠBuild": 6938,
      "ĠMem": 6939,
      "AND": 6940,
      "public": 6941,
      "Ġgain": 6942,
      "available": 6943,
      "sole": 6944,
      "Bar": 6945,
      "greg": 6946,
      "zero": 6947,
      "ĠNor": 6948,
      "Ġ400": 6949,
      "ĠScience": 6950,
      "icine": 6951,
      "ented": 6952,
      "Ġstack": 6953,
      "aped": 6954,
      "ĠMary": 6955,
      "Ġsigned": 6956,
      "Ġsenior": 6957,
      "razy": 6958,
      "ucture": 6959,
      "Ġwhom": 6960,
      "Ġhel": 6961,
      "ĠTwitter": 6962,
      "ĠNO": 6963,
      "Ġfont": 6964,
      "Ospfv": 6965,
      "Ġdelete": 6966,
      "PR": 6967,
      "159": 6968,
      "Ġcompos": 6969,
      "secut": 6970,
      "Ġreviews": 6971,
      "Ġsympt": 6972,
      "Ġvac": 6973,
      "eck": 6974,
      "rcm": 6975,
      "Ġspect": 6976,
      "ipped": 6977,
      "ĠShow": 6978,
      "samples": 6979,
      "iform": 6980,
      "ĠFore": 6981,
      "contrib": 6982,
      "Brcm": 6983,
      "Mode": 6984,
      "person": 6985,
      "Ġ1702": 6986,
      "Ġanti": 6987,
      ">>]": 6988,
      "eq": 6989,
      "Ġtables": 6990,
      "Ġunexpected": 6991,
      "Ġradio": 6992,
      "irgin": 6993,
      "that": 6994,
      "ĠRiver": 6995,
      "Ġ[<<": 6996,
      "Ġsources": 6997,
      "Ġsustain": 6998,
      "ba": 6999,
      "mapping": 7000,
      "agram": 7001,
      "Ġvote": 7002,
      "ĠAngel": 7003,
      "Element": 7004,
      "ishes": 7005,
      "Ġfish": 7006,
      "amin": 7007,
      "Ġ'-": 7008,
      "exception": 7009,
      "extend": 7010,
      "setup": 7011,
      "Ġdeveloping": 7012,
      "ĠOh": 7013,
      "ĠĠĠĠĠĠĠĠĠĠĠĠĠĠĠĠĠĠĠĠĠĠĠĠĠĠĠĠĠĠĠĠĠĠĠĠ": 7014,
      "umes": 7015,
      "Ġexhib": 7016,
      "Ġ70": 7017,
      "Comple": 7018,
      "Ġcapacity": 7019,
      "cd": 7020,
      "Â®": 7021,
      "DataFrame": 7022,
      "Ġapplied": 7023,
      "Ġcaused": 7024,
      "baidu": 7025,
      "ĠWARRAN": 7026,
      "enabled": 7027,
      "ĠER": 7028,
      "Ġadvance": 7029,
      "\\|": 7030,
      "Ġcos": 7031,
      "199": 7032,
      "ĠClick": 7033,
      "Ġposted": 7034,
      "TR": 7035,
      "Ġnu": 7036,
      "2011": 7037,
      "ĠJer": 7038,
      "tools": 7039,
      "Ġstreet": 7040,
      "Ġfre": 7041,
      "170": 7042,
      "Ġtrial": 7043,
      "Off": 7044,
      "Rem": 7045,
      "estival": 7046,
      "Ġentries": 7047,
      "night": 7048,
      "Ġsamples": 7049,
      "Line": 7050,
      "cap": 7051,
      "ĠAre": 7052,
      "Ġcorner": 7053,
      "Ġsmaller": 7054,
      "IGHT": 7055,
      "Ġexperiences": 7056,
      "846": 7057,
      "Ġshowed": 7058,
      "standing": 7059,
      "exit": 7060,
      "ĠLou": 7061,
      "getter": 7062,
      "ocked": 7063,
      "DEL": 7064,
      "Ġ'%": 7065,
      "Ġvs": 7066,
      "ribution": 7067,
      "Ġtechnical": 7068,
      "TC": 7069,
      "Ġfav": 7070,
      "Ġdanger": 7071,
      "operation": 7072,
      "Ġdetected": 7073,
      "Ġdistrict": 7074,
      "png": 7075,
      "Ġtruck": 7076,
      "ĠStar": 7077,
      "Ġbag": 7078,
      "raises": 7079,
      "flags": 7080,
      "ĠCustom": 7081,
      "inct": 7082,
      "ĠMex": 7083,
      "250": 7084,
      "Ġsomew": 7085,
      "Ġwriter": 7086,
      "DI": 7087,
      "rv": 7088,
      "2014": 7089,
      "Ġcoverage": 7090,
      "Ġseparate": 7091,
      "sol": 7092,
      "Ġfashion": 7093,
      "tests": 7094,
      "ĠArch": 7095,
      "Connection": 7096,
      "ĠDataFrame": 7097,
      "Ġfilled": 7098,
      "Ġvill": 7099,
      "Ġ33": 7100,
      "xe": 7101,
      "Ġpipeline": 7102,
      "ĠCamp": 7103,
      "Ġcluster": 7104,
      "queue": 7105,
      "Ġlaws": 7106,
      "ĠĠĠĠĠĠĠĠĠĠĠĠĠĠĠĠĠĠĠĠĠĠĠĠĠĠĠĠĠĠĠĠĠĠĠĠĠĠĠĠĠĠĠĠĠĠĠĠĠĠĠĠĠĠĠĠĠĠĠĠĠĠĠĠĠĠĠĠĠĠĠĠĠĠĠĠĠĠĠĠĠĠĠĠĠĠĠĠĠĠĠĠĠĠĠĠĠĠĠĠĠĠĠĠĠĠĠĠĠĠĠĠĠĠĠĠĠĠĠĠĠĠĠĠĠĠĠĠ": 7107,
      "elines": 7108,
      "Ġreached": 7109,
      "102": 7110,
      "Ġremote": 7111,
      "Ġcontinues": 7112,
      "empty": 7113,
      "Ġmission": 7114,
      "sequence": 7115,
      "ady": 7116,
      "Ġ\"__": 7117,
      "Ġthanks": 7118,
      "las": 7119,
      "Ġcart": 7120,
      "enter": 7121,
      "this": 7122,
      "2010": 7123,
      "cret": 7124,
      "bro": 7125,
      "trace": 7126,
      "bi": 7127,
      "Invalid": 7128,
      "Ġvisual": 7129,
      "Ġofficials": 7130,
      "den": 7131,
      "master": 7132,
      "sent": 7133,
      "Ġfol": 7134,
      "ading": 7135,
      "Ġprocessing": 7136,
      "368": 7137,
      "Ġpresented": 7138,
      "................": 7139,
      "Ġultim": 7140,
      "Ġ?": 7141,
      "invalid": 7142,
      "ilation": 7143,
      "ria": 7144,
      "165": 7145,
      "Groups": 7146,
      "Ġsorted": 7147,
      "Ġexperienced": 7148,
      "Ġaim": 7149,
      "edy": 7150,
      "Ġwatching": 7151,
      "FAULT": 7152,
      "FC": 7153,
      "seed": 7154,
      "ĠCocoa": 7155,
      "pers": 7156,
      "ĠFil": 7157,
      "197": 7158,
      "'''": 7159,
      "More": 7160,
      "Ren": 7161,
      "ĠModel": 7162,
      "Ġshowing": 7163,
      "ĠGeorge": 7164,
      "ini": 7165,
      "ĠAud": 7166,
      "ĠBay": 7167,
      "tok": 7168,
      "Ġagree": 7169,
      ":/": 7170,
      "ĠSafari": 7171,
      "Ġcomfortable": 7172,
      ">.": 7173,
      "ano": 7174,
      "ĠSom": 7175,
      "ĠWhether": 7176,
      "cpus": 7177,
      "Ġideal": 7178,
      "Ġkid": 7179,
      "Ġkilled": 7180,
      "Ġcommunication": 7181,
      "Ġcompliance": 7182,
      "esterday": 7183,
      "cf": 7184,
      "Ġcontainer": 7185,
      "LIC": 7186,
      "ĠTer": 7187,
      "ĠSand": 7188,
      "Ġshift": 7189,
      "'][": 7190,
      "Ġboot": 7191,
      "Ġcombination": 7192,
      "Ġinjury": 7193,
      "Ġthousands": 7194,
      "141": 7195,
      "eless": 7196,
      "ĠInvalid": 7197,
      "Ġscope": 7198,
      "Ġindependent": 7199,
      "Your": 7200,
      "Ġthrow": 7201,
      "Ġ210": 7202,
      "riage": 7203,
      "ĠHall": 7204,
      "izers": 7205,
      "ĠInstitute": 7206,
      "steps": 7207,
      "Ġdistribution": 7208,
      "bles": 7209,
      "Ġsnow": 7210,
      "ĠPeople": 7211,
      "Ġsusp": 7212,
      "xpc": 7213,
      "icator": 7214,
      "ĠLord": 7215,
      "IND": 7216,
      "ĠTre": 7217,
      "inet": 7218,
      "ĠBrown": 7219,
      "Start": 7220,
      "useum": 7221,
      "ĠSum": 7222,
      "Ġproc": 7223,
      "Ġrain": 7224,
      "Ġpal": 7225,
      "seq": 7226,
      "ĠWood": 7227,
      "EMPT": 7228,
      "Ġpolicies": 7229,
      "ĠEngland": 7230,
      "Broadcast": 7231,
      "Ġ-[": 7232,
      "Ġaccepted": 7233,
      "erk": 7234,
      "abit": 7235,
      "loads": 7236,
      "Ġended": 7237,
      "Ġloop": 7238,
      "ĠEngine": 7239,
      "reedom": 7240,
      "iC": 7241,
      "Ġmenu": 7242,
      "Ġbrief": 7243,
      "Agg": 7244,
      "Ġprovider": 7245,
      "Ġdecide": 7246,
      "Logs": 7247,
      "Ġmanaged": 7248,
      "Ġvolunte": 7249,
      "Vpn": 7250,
      "Ġprote": 7251,
      "Ġclearly": 7252,
      "Ġorders": 7253,
      "325": 7254,
      "[[": 7255,
      "Ġcrop": 7256,
      "Ġconven": 7257,
      "ampionship": 7258,
      "ĠYes": 7259,
      "testing": 7260,
      "Ġscripting": 7261,
      "Ġrows": 7262,
      "Ġunless": 7263,
      "fox": 7264,
      "backup": 7265,
      "startswith": 7266,
      "Ġpresence": 7267,
      "Ġtips": 7268,
      "ĠSO": 7269,
      "Ġnotes": 7270,
      "compl": 7271,
      "actor": 7272,
      "ĠSoftware": 7273,
      "vector": 7274,
      "Ġparties": 7275,
      "icing": 7276,
      "ĠHam": 7277,
      "Ġ61": 7278,
      "Ġteaching": 7279,
      "Ġnegoti": 7280,
      "Ġingred": 7281,
      "ndarray": 7282,
      "Ġharm": 7283,
      "storage": 7284,
      "ĠMo": 7285,
      "Device": 7286,
      "Ġbought": 7287,
      "install": 7288,
      "acks": 7289,
      "Ġgetattr": 7290,
      ">##<": 7291,
      "ĠColor": 7292,
      "Net": 7293,
      "Ġmaintain": 7294,
      "Ġsaved": 7295,
      "credentials": 7296,
      "ka": 7297,
      "ĠTH": 7298,
      "Ġ\".": 7299,
      "=_": 7300,
      "bd": 7301,
      "tw": 7302,
      "umed": 7303,
      "Ġacadem": 7304,
      "ĠChrome": 7305,
      "Ġhtml": 7306,
      "ĠCarol": 7307,
      "Valid": 7308,
      "Ġmsra": 7309,
      "css": 7310,
      "tt": 7311,
      "Ġlose": 7312,
      "Ġ48": 7313,
      "ĠĠĠĠĠĠĠĠĠĠĠĠĠĠĠĠĠĠĠĠĠĠĠĠĠĠĠĠĠĠ": 7314,
      "interval": 7315,
      "Ġcells": 7316,
      "Ġrap": 7317,
      "summary": 7318,
      "hat": 7319,
      "orney": 7320,
      "ĠTel": 7321,
      "END": 7322,
      "ĠSam": 7323,
      "TIM": 7324,
      "ĠUSA": 7325,
      "Ġslightly": 7326,
      "fs": 7327,
      "iture": 7328,
      "alar": 7329,
      "oolean": 7330,
      "Ġcris": 7331,
      "Ġlegis": 7332,
      "gorithm": 7333,
      "Part": 7334,
      "Safari": 7335,
      "buffer": 7336,
      "pow": 7337,
      "rating": 7338,
      "astr": 7339,
      "inding": 7340,
      "ĠJew": 7341,
      "Ġbuff": 7342,
      "you": 7343,
      "Ġmur": 7344,
      "240": 7345,
      "ĠArray": 7346,
      "ĠFranc": 7347,
      "going": 7348,
      "slow": 7349,
      "Ġegg": 7350,
      "quant": 7351,
      "Ġchain": 7352,
      "ĠAddress": 7353,
      "Ġcompetition": 7354,
      "SH": 7355,
      "ogou": 7356,
      "Ġspending": 7357,
      "coin": 7358,
      "Ġlayers": 7359,
      "Ġpractices": 7360,
      "Ġrelevant": 7361,
      "Order": 7362,
      "CF": 7363,
      "training": 7364,
      "ificate": 7365,
      "ĠDevelopment": 7366,
      "ĠEducation": 7367,
      "ocab": 7368,
      "ĠAmericans": 7369,
      "Ġjourney": 7370,
      "455": 7371,
      "Ġsch": 7372,
      "Ġpsych": 7373,
      "ewer": 7374,
      "Ġours": 7375,
      "php": 7376,
      "Ġperformed": 7377,
      "bias": 7378,
      "math": 7379,
      "Ġarticles": 7380,
      "ĠSing": 7381,
      "Point": 7382,
      "beta": 7383,
      "unit": 7384,
      "RED": 7385,
      "14463": 7386,
      "TYPE": 7387,
      "tics": 7388,
      "alpha": 7389,
      "Ġstd": 7390,
      "Ġfourth": 7391,
      "PA": 7392,
      "Ġtmp": 7393,
      "urer": 7394,
      "ĠFoundation": 7395,
      "Ġmentioned": 7396,
      "hist": 7397,
      "Ġice": 7398,
      "Ġpri": 7399,
      "series": 7400,
      "Ġ2000": 7401,
      "player": 7402,
      "Resource": 7403,
      "Ġexercise": 7404,
      "estic": 7405,
      "ĠLear": 7406,
      "Ġrelative": 7407,
      "flag": 7408,
      "curl": 7409,
      "ĠFig": 7410,
      "ĠFOR": 7411,
      "roud": 7412,
      "Ġexcited": 7413,
      "Ġmajority": 7414,
      "Ġretail": 7415,
      "Ġ84": 7416,
      "ENSE": 7417,
      "IA": 7418,
      "ij": 7419,
      "Ġctx": 7420,
      "Ġdefinition": 7421,
      "TIES": 7422,
      "poch": 7423,
      "Count": 7424,
      "kernel": 7425,
      "224": 7426,
      "Ġ66": 7427,
      "Ġattributes": 7428,
      "Ġanimals": 7429,
      "sites": 7430,
      "health": 7431,
      "Ġwire": 7432,
      "Ġ58": 7433,
      "432": 7434,
      "attributes": 7435,
      "Ġsessionid": 7436,
      "Ġprepared": 7437,
      "Ġdedicated": 7438,
      "poss": 7439,
      "seudow": 7440,
      "Map": 7441,
      "Xconnect": 7442,
      "Ġweights": 7443,
      "176": 7444,
      "Ġplenty": 7445,
      "Ġdespite": 7446,
      "Ġdepartment": 7447,
      "Ġeditor": 7448,
      "Ġforeign": 7449,
      "CONF": 7450,
      "Ġrelax": 7451,
      "cost": 7452,
      "global": 7453,
      "Ġcards": 7454,
      "section": 7455,
      "ĠMat": 7456,
      "osph": 7457,
      "Intern": 7458,
      "Ġmostly": 7459,
      "Ġaudio": 7460,
      "Ġhyper": 7461,
      "Ġwinter": 7462,
      "8859": 7463,
      "Ġartist": 7464,
      "Ġcomponents": 7465,
      "Ġbund": 7466,
      "slice": 7467,
      "Ġ'__": 7468,
      "Ġjoint": 7469,
      "Windows": 7470,
      "108": 7471,
      "ĠLeg": 7472,
      "ĠIntel": 7473,
      "emon": 7474,
      "ĠImage": 7475,
      "Ġ~": 7476,
      "icit": 7477,
      "appe": 7478,
      "Ġtheme": 7479,
      "2007": 7480,
      "305": 7481,
      "sig": 7482,
      "Ġefficient": 7483,
      "Ġvision": 7484,
      "Ġroutine": 7485,
      "Why": 7486,
      "Ġcommunities": 7487,
      "ĠCongress": 7488,
      "cm": 7489,
      "ya": 7490,
      "enable": 7491,
      "Ġkick": 7492,
      "Ġtasks": 7493,
      "istrict": 7494,
      "card": 7495,
      "Ġtx": 7496,
      "Ġbecoming": 7497,
      "ĠStep": 7498,
      "2009": 7499,
      "ĠPOSSI": 7500,
      "]+": 7501,
      "ĠTwo": 7502,
      "loop": 7503,
      "Ġproperly": 7504,
      "cy": 7505,
      "ws": 7506,
      "Ġpm": 7507,
      "ĠMatt": 7508,
      "Ġspecies": 7509,
      "Ġhandler": 7510,
      "ĠLeague": 7511,
      "CS": 7512,
      "warning": 7513,
      "Ġfunds": 7514,
      "wer": 7515,
      "onom": 7516,
      "arp": 7517,
      "istent": 7518,
      "Ġprepar": 7519,
      "ĠChicago": 7520,
      "Ġrecip": 7521,
      "iliar": 7522,
      "Ġleadership": 7523,
      "PATH": 7524,
      "Family": 7525,
      "Ġbatter": 7526,
      "ĠMrs": 7527,
      "DataNode": 7528,
      "Ġidentify": 7529,
      "Ġadvanced": 7530,
      "ĠDirector": 7531,
      "Ġban": 7532,
      "Ġmess": 7533,
      "ĠAlex": 7534,
      "ĠField": 7535,
      "Ġ37": 7536,
      "prop": 7537,
      "ĠVol": 7538,
      "ĠSte": 7539,
      "ĠChinese": 7540,
      "Ġsmooth": 7541,
      "transport": 7542,
      "Ġverify": 7543,
      "Ġautomatically": 7544,
      "rl": 7545,
      "west": 7546,
      "Ġleaves": 7547,
      "Ġdebug": 7548,
      "Ġteacher": 7549,
      "Ġlabor": 7550,
      "Ġsymptoms": 7551,
      "}\"": 7552,
      "stat": 7553,
      "ĠMil": 7554,
      "Ġclos": 7555,
      "feed": 7556,
      "ĠLinux": 7557,
      "Ġrenew": 7558,
      "ifies": 7559,
      "REAK": 7560,
      "ategy": 7561,
      "ouns": 7562,
      "Ġsouth": 7563,
      "omin": 7564,
      "uries": 7565,
      "Ġsea": 7566,
      "Ġenvironmental": 7567,
      "Ġdiscussion": 7568,
      "Ġshopping": 7569,
      "âĢĺ": 7570,
      "anda": 7571,
      "Ġ81": 7572,
      "ĠQue": 7573,
      "Ġdiagn": 7574,
      "Ġexecutor": 7575,
      "engine": 7576,
      "Filter": 7577,
      "Ġchannels": 7578,
      "ĠGB": 7579,
      "onds": 7580,
      "Ġ2004": 7581,
      "Ġgenerating": 7582,
      "Ġpurposes": 7583,
      "plug": 7584,
      "Ġfamous": 7585,
      "Ġ'--": 7586,
      "losed": 7587,
      "ĠVer": 7588,
      "Ġregistered": 7589,
      "diff": 7590,
      "Ġmir": 7591,
      "Ġinfr": 7592,
      "abc": 7593,
      "ĠBill": 7594,
      "crete": 7595,
      "ission": 7596,
      "Ġbackup": 7597,
      "ĠTeam": 7598,
      "Ġwedding": 7599,
      "Ġcc": 7600,
      "Ġbird": 7601,
      "ails": 7602,
      "Ġcopyright": 7603,
      "category": 7604,
      "Ġentity": 7605,
      "Ġinstant": 7606,
      "Column": 7607,
      "faces": 7608,
      "neg": 7609,
      "issue": 7610,
      "forward": 7611,
      "depth": 7612,
      "Ġhonest": 7613,
      "(**": 7614,
      "organ": 7615,
      "ĠCare": 7616,
      "Ġspring": 7617,
      "Ġdesk": 7618,
      "Ġleads": 7619,
      "Ġwelcome": 7620,
      "Ġmental": 7621,
      "ĠSession": 7622,
      "irmed": 7623,
      "ĠWr": 7624,
      "Ġcompat": 7625,
      "Ġinstances": 7626,
      "PM": 7627,
      "font": 7628,
      "ĠAlthough": 7629,
      "ĠAdmin": 7630,
      "605": 7631,
      "WDL": 7632,
      "Ġpatch": 7633,
      "Ġsquare": 7634,
      "211": 7635,
      "Over": 7636,
      "ĠPerson": 7637,
      "Ġestate": 7638,
      "dimension": 7639,
      "Ġsongs": 7640,
      "MB": 7641,
      "lomer": 7642,
      "Ġsounds": 7643,
      "ĠWater": 7644,
      "Ġminor": 7645,
      "PUT": 7646,
      "clean": 7647,
      "Ġadministration": 7648,
      "ĠSmith": 7649,
      "May": 7650,
      "ni": 7651,
      "ĠCould": 7652,
      "ĠThank": 7653,
      "ĠChild": 7654,
      "Ġemerg": 7655,
      "interface": 7656,
      "Ġutf": 7657,
      "iders": 7658,
      "ĠGar": 7659,
      "Ġlisten": 7660,
      "Ġcreation": 7661,
      "Ġasking": 7662,
      "ĠRobert": 7663,
      "Ġchoices": 7664,
      "han": 7665,
      "ĠAD": 7666,
      "azure": 7667,
      "Ġalternative": 7668,
      "report": 7669,
      "Ġlim": 7670,
      "nb": 7671,
      "ĠLake": 7672,
      "Ġchanging": 7673,
      "ĠGrand": 7674,
      "Executor": 7675,
      "ĠUnder": 7676,
      "Ġconfidence": 7677,
      "Handle": 7678,
      "VID": 7679,
      "route": 7680,
      "ength": 7681,
      "straint": 7682,
      "required": 7683,
      "Ġarchitect": 7684,
      "stances": 7685,
      "Ġnone": 7686,
      "ifts": 7687,
      "Ġran": 7688,
      "ander": 7689,
      "acts": 7690,
      "226": 7691,
      "ĠCommittee": 7692,
      "warn": 7693,
      "othes": 7694,
      "Ġdesired": 7695,
      "cluded": 7696,
      "Ġabsolute": 7697,
      "life": 7698,
      "overy": 7699,
      "iger": 7700,
      "istant": 7701,
      "122": 7702,
      "Ġserving": 7703,
      "Ġprocesses": 7704,
      "Ġcollections": 7705,
      "MT": 7706,
      "high": 7707,
      "Ġdut": 7708,
      "acle": 7709,
      "acker": 7710,
      "('--": 7711,
      "Ġgate": 7712,
      "ializer": 7713,
      "ĠYear": 7714,
      "iciency": 7715,
      "Ġmo": 7716,
      "Ġ\"%": 7717,
      "Ġblocks": 7718,
      "vas": 7719,
      "Ġ124": 7720,
      "Ġexport": 7721,
      "Ġhearing": 7722,
      "helper": 7723,
      "eroll": 7724,
      "Ġwitness": 7725,
      "ĠPan": 7726,
      "Ġadvis": 7727,
      "INE": 7728,
      "Chat": 7729,
      "ITION": 7730,
      "Ġtensorflow": 7731,
      "Found": 7732,
      "mo": 7733,
      "ĠTim": 7734,
      "190": 7735,
      "works": 7736,
      "lsa": 7737,
      "Ġbattle": 7738,
      "stone": 7739,
      "Ġexamples": 7740,
      "Ġwilling": 7741,
      "Ġmatrix": 7742,
      "Ġfootball": 7743,
      "SON": 7744,
      "ĠPRO": 7745,
      "Ġ38": 7746,
      "AMP": 7747,
      "Power": 7748,
      "yer": 7749,
      "ĠPass": 7750,
      "Ġdefense": 7751,
      "Ġoperator": 7752,
      "Ġminute": 7753,
      "Ġfixed": 7754,
      "447": 7755,
      "FE": 7756,
      "UE": 7757,
      "177": 7758,
      "ĠConfig": 7759,
      "Ġposts": 7760,
      "302": 7761,
      "Ġeventually": 7762,
      "Ġopinion": 7763,
      "hi": 7764,
      "ĠDO": 7765,
      "ĠDistrict": 7766,
      "shard": 7767,
      "Ġpassion": 7768,
      "Ġremaining": 7769,
      "adminsession": 7770,
      "Go": 7771,
      "}/": 7772,
      "Ġexit": 7773,
      "activ": 7774,
      "cedure": 7775,
      "Parameter": 7776,
      "Ġcomponent": 7777,
      "uke": 7778,
      "Ġmouth": 7779,
      "PER": 7780,
      "orough": 7781,
      "Ġstim": 7782,
      "Ġvirtual": 7783,
      "112": 7784,
      "BO": 7785,
      "enses": 7786,
      "ĠEarth": 7787,
      "aser": 7788,
      "ĠPoint": 7789,
      "ĠBREAK": 7790,
      "expr": 7791,
      "Ġexperts": 7792,
      "Version": 7793,
      "ows": 7794,
      "ĠAmazon": 7795,
      "50010": 7796,
      "Am": 7797,
      "days": 7798,
      "Ġsql": 7799,
      "serialize": 7800,
      "orders": 7801,
      "LOCK": 7802,
      "Ġexpression": 7803,
      "ĠDiv": 7804,
      "Ġenabled": 7805,
      "2008": 7806,
      "Engine": 7807,
      "First": 7808,
      "Ġanc": 7809,
      "Ġoperating": 7810,
      "Tem": 7811,
      "pret": 7812,
      "Ġlocations": 7813,
      "Ġdestination": 7814,
      "door": 7815,
      "skip": 7816,
      "ĠATTEMPT": 7817,
      "sqrt": 7818,
      "SO": 7819,
      "ĠLike": 7820,
      "Ġvideos": 7821,
      "iration": 7822,
      "__()": 7823,
      "ava": 7824,
      "git": 7825,
      "stage": 7826,
      "Ġupper": 7827,
      "Ġusage": 7828,
      "Ġemer": 7829,
      "205": 7830,
      "Number": 7831,
      "Ġvir": 7832,
      "lands": 7833,
      "Ġcab": 7834,
      "Ġ\"\"": 7835,
      "boxes": 7836,
      "Ġstopped": 7837,
      "Sp": 7838,
      "HTTP": 7839,
      "const": 7840,
      "Ġworry": 7841,
      "Claro": 7842,
      "License": 7843,
      "Lease": 7844,
      "Sum": 7845,
      "lat": 7846,
      "repr": 7847,
      "Ġthr": 7848,
      "igan": 7849,
      "abet": 7850,
      "Ġ300": 7851,
      "467": 7852,
      "Ġconfirm": 7853,
      "Ġresponsibility": 7854,
      "Sw": 7855,
      "inn": 7856,
      "ĠSal": 7857,
      "Ġadvent": 7858,
      "ixin": 7859,
      "ĠWho": 7860,
      "download": 7861,
      "Ġthoughts": 7862,
      "Ġwalking": 7863,
      "NC": 7864,
      "Ġpid": 7865,
      "ether": 7866,
      "Ġsexual": 7867,
      "ĠPOSSIBLE": 7868,
      "mag": 7869,
      "water": 7870,
      "Ġcraft": 7871,
      "Ġ\"\\": 7872,
      "Ġ\"--": 7873,
      "Ġarm": 7874,
      "Ġquot": 7875,
      "classmethod": 7876,
      "ĠFrance": 7877,
      "Ġpreviously": 7878,
      "ĠAfrica": 7879,
      "resents": 7880,
      "raz": 7881,
      "phas": 7882,
      "Commun": 7883,
      "Ġjoined": 7884,
      ".|": 7885,
      "ĠHill": 7886,
      "Ġdoct": 7887,
      "prob": 7888,
      "245": 7889,
      "Ġimplementation": 7890,
      "Ġresidents": 7891,
      "Ġsector": 7892,
      "nan": 7893,
      "171": 7894,
      "assertIs": 7895,
      "ĠApache": 7896,
      "Ġwinning": 7897,
      "sleep": 7898,
      "118": 7899,
      "boot": 7900,
      "ancer": 7901,
      "Ġteachers": 7902,
      "Ġnumerous": 7903,
      "ĠGerm": 7904,
      "aks": 7905,
      "Ġfeels": 7906,
      "added": 7907,
      "framework": 7908,
      "Ġboxes": 7909,
      "Su": 7910,
      "ĠTook": 7911,
      "ĠAC": 7912,
      "ĠJud": 7913,
      "Ġpred": 7914,
      "Ġbuying": 7915,
      "Ġrelationships": 7916,
      "addrinfo": 7917,
      "rozen": 7918,
      "ĠCD": 7919,
      "Ġsugar": 7920,
      "360": 7921,
      "apshot": 7922,
      "ĠFood": 7923,
      "ĠLine": 7924,
      "osis": 7925,
      "poration": 7926,
      "Ġrestaurant": 7927,
      "Ġagreement": 7928,
      "MetaInfo": 7929,
      "Agglomer": 7930,
      "Agglomerator": 7931,
      "craft": 7932,
      "Ġcars": 7933,
      "ĠWil": 7934,
      "endor": 7935,
      "Ġgetaddrinfo": 7936,
      "Ġbrings": 7937,
      "Ġsalt": 7938,
      "Ġshipping": 7939,
      "ride": 7940,
      "ena": 7941,
      "Renewer": 7942,
      "iCmd": 7943,
      ":%": 7944,
      "Ġcp": 7945,
      "Ġmort": 7946,
      "232": 7947,
      "Ġmarkets": 7948,
      "pattern": 7949,
      "LeaseRenewer": 7950,
      "??": 7951,
      "cuda": 7952,
      "Ġskip": 7953,
      "Ġexternal": 7954,
      "Ġcommitted": 7955,
      "Ġlaun": 7956,
      "Ġneighbor": 7957,
      "Ġbrowser": 7958,
      "ximately": 7959,
      "ais": 7960,
      "gb": 7961,
      "Ġ255": 7962,
      "ĠSpe": 7963,
      "Ġstores": 7964,
      "ĠReal": 7965,
      "Ġlimitations": 7966,
      "changes": 7967,
      "urred": 7968,
      "Ġputting": 7969,
      "Ġdiet": 7970,
      "Ġholding": 7971,
      "ĠMad": 7972,
      "ĠJournal": 7973,
      "ĠVis": 7974,
      "Ġintended": 7975,
      "Ġends": 7976,
      "else": 7977,
      "Ġgarden": 7978,
      "Ġcircum": 7979,
      "Ġabsolutely": 7980,
      "onymous": 7981,
      "ĠWARRANTIES": 7982,
      "ita": 7983,
      "ĠTensor": 7984,
      "Ġkill": 7985,
      "elled": 7986,
      "ĠProduct": 7987,
      "button": 7988,
      "Top": 7989,
      "cial": 7990,
      "Ġsin": 7991,
      "ĠStand": 7992,
      "!âĢĿ": 7993,
      ")(": 7994,
      "ĠSil": 7995,
      "ĠScott": 7996,
      "market": 7997,
      "Ġinsert": 7998,
      "ĠGame": 7999,
      "symbol": 8000,
      "ĠTem": 8001,
      "ushed": 8002,
      "179": 8003,
      "oul": 8004,
      "Ġdinner": 8005,
      "Ġ212": 8006,
      "ĠRad": 8007,
      "ĠGen": 8008,
      "Ġplays": 8009,
      "logging": 8010,
      "Ġappeared": 8011,
      "ĠMedia": 8012,
      "\"{": 8013,
      ")).": 8014,
      "pair": 8015,
      "esome": 8016,
      "ĠBoth": 8017,
      "ĠLast": 8018,
      "ĠIns": 8019,
      "Ġusername": 8020,
      "Ġpoly": 8021,
      "Ġapparent": 8022,
      "noon": 8023,
      "Ġexecute": 8024,
      "Ġfocused": 8025,
      "Ġride": 8026,
      "plan": 8027,
      "ĠElect": 8028,
      "Ġexpensive": 8029,
      "decimal": 8030,
      "}\")": 8031,
      "Ġ34": 8032,
      "Ġmanner": 8033,
      "fortunately": 8034,
      "ĠParty": 8035,
      "Ġreserved": 8036,
      "usters": 8037,
      "Ġtra": 8038,
      "linear": 8039,
      "Ġhelpful": 8040,
      "Ġcycle": 8041,
      "derr": 8042,
      "ĠWestern": 8043,
      "none": 8044,
      "Ġchief": 8045,
      "descriptor": 8046,
      "Ġproud": 8047,
      "Ġeating": 8048,
      "Ġ82": 8049,
      "rolled": 8050,
      "iences": 8051,
      "Ġsig": 8052,
      "abi": 8053,
      "186": 8054,
      "Ġpermission": 8055,
      "Ġdecisions": 8056,
      "Ġveget": 8057,
      "Ġcredentials": 8058,
      "ĠEstab": 8059,
      "estyle": 8060,
      "Ġ55": 8061,
      "Ġagency": 8062,
      "ĠThomas": 8063,
      ")/": 8064,
      "amma": 8065,
      "Ġ\",": 8066,
      "ĠUs": 8067,
      "\").": 8068,
      "Ġ128": 8069,
      "Ġclassic": 8070,
      "Ġguests": 8071,
      "ĠOnline": 8072,
      "Ġcausing": 8073,
      "Ġconcerns": 8074,
      "ĠTour": 8075,
      "Ġdecre": 8076,
      "ĠLong": 8077,
      "Ġshel": 8078,
      "Ġassigned": 8079,
      "ĠExp": 8080,
      "plemented": 8081,
      "tracker": 8082,
      "ĠSl": 8083,
      "cepted": 8084,
      "Ġslice": 8085,
      "before": 8086,
      "eal": 8087,
      "Ġexchange": 8088,
      "aug": 8089,
      "Ġsurvey": 8090,
      "ĠOrgan": 8091,
      "generate": 8092,
      "->": 8093,
      "LA": 8094,
      "tol": 8095,
      "Ġrise": 8096,
      "Ġprev": 8097,
      "Ġencoding": 8098,
      "rtype": 8099,
      "include": 8100,
      "Ġwest": 8101,
      "extract": 8102,
      "Ġpermissions": 8103,
      "Decimal": 8104,
      "ocolate": 8105,
      "Every": 8106,
      "II": 8107,
      "qq": 8108,
      "Ġ112": 8109,
      "unpack": 8110,
      "ĠBob": 8111,
      "158": 8112,
      "cohol": 8113,
      "Ġdoubt": 8114,
      "Ġholiday": 8115,
      "ĠTheir": 8116,
      "')),": 8117,
      "Ġidentified": 8118,
      "Ġmeasures": 8119,
      "Ġintr": 8120,
      "ĠPlay": 8121,
      "Ġconst": 8122,
      "203": 8123,
      "Ġallowing": 8124,
      "ROM": 8125,
      "Ġfriendly": 8126,
      "Ġdebt": 8127,
      "Ġcombined": 8128,
      "Ġsock": 8129,
      "Ġpun": 8130,
      "Ġmach": 8131,
      "Ġconflict": 8132,
      "Ġarrest": 8133,
      "Entry": 8134,
      "ĠDropbox": 8135,
      "ipt": 8136,
      "ĠText": 8137,
      "../": 8138,
      "ĠWeChat": 8139,
      "Air": 8140,
      "Window": 8141,
      "final": 8142,
      "eries": 8143,
      "Ġfolder": 8144,
      "Ġinstr": 8145,
      "Ġ1000": 8146,
      "Ġalpha": 8147,
      "axes": 8148,
      "ĠSpecial": 8149,
      "Ġconversation": 8150,
      "rum": 8151,
      "Ġlin": 8152,
      "utah": 8153,
      "ĠDi": 8154,
      "ĠVirgin": 8155,
      "349": 8156,
      "prise": 8157,
      "otten": 8158,
      "Ġbeauty": 8159,
      "Ġtwice": 8160,
      "Ġfemale": 8161,
      "Des": 8162,
      "Ġfake": 8163,
      "Ġnorth": 8164,
      "ĠWomen": 8165,
      "gery": 8166,
      "Ġmedium": 8167,
      "Ġmotor": 8168,
      "Ġsteel": 8169,
      "Ġfetch": 8170,
      "('\\": 8171,
      "directory": 8172,
      "lint": 8173,
      "ĠNT": 8174,
      "Ġcancel": 8175,
      "encing": 8176,
      "ĠHead": 8177,
      "Ġtaste": 8178,
      "Ġsegment": 8179,
      "cluding": 8180,
      "ĠProv": 8181,
      "Ġspeech": 8182,
      "Ġrooms": 8183,
      "Ġoccur": 8184,
      "dynamic": 8185,
      "Ġ\"-": 8186,
      "Ġsuit": 8187,
      "Ġprepare": 8188,
      "MetaInfoClass": 8189,
      "bucket": 8190,
      "Ġadapt": 8191,
      "Ġ_,": 8192,
      "ĠProt": 8193,
      "Ġfacilities": 8194,
      "oma": 8195,
      "Ġring": 8196,
      "isting": 8197,
      "VD": 8198,
      "Ġsupposed": 8199,
      "Ġcharges": 8200,
      "Ġcities": 8201,
      "arrow": 8202,
      "Ġrob": 8203,
      "ĠSecret": 8204,
      "Down": 8205,
      "Open": 8206,
      "idential": 8207,
      "ceive": 8208,
      "ĠNumber": 8209,
      "ĠLook": 8210,
      "Ġaccompl": 8211,
      "ups": 8212,
      "metrics": 8213,
      "Ġtotally": 8214,
      "Ġepisode": 8215,
      "Ġbug": 8216,
      "Ġhash": 8217,
      "Ġcorporate": 8218,
      "Ġbreath": 8219,
      "arian": 8220,
      "Ġbot": 8221,
      "ĠSocial": 8222,
      "Ident": 8223,
      "UD": 8224,
      "ometry": 8225,
      "Ġforces": 8226,
      "184": 8227,
      "Ġspons": 8228,
      "ĠExecut": 8229,
      "ĠPhone": 8230,
      "licenses": 8231,
      "Ġretry": 8232,
      "ĠDig": 8233,
      "tool": 8234,
      "Ġupload": 8235,
      "Ġsignal": 8236,
      "Ġdepending": 8237,
      "Ġrecommended": 8238,
      "Ġdeny": 8239,
      "600": 8240,
      "><": 8241,
      "Ġwindows": 8242,
      "Ġfuel": 8243,
      "Ġalle": 8244,
      "Ġweak": 8245,
      "aved": 8246,
      "ĠCons": 8247,
      "Ġpossibly": 8248,
      "attrs": 8249,
      "MI": 8250,
      "orry": 8251,
      "Ġroof": 8252,
      "Ġexciting": 8253,
      "compile": 8254,
      "Sign": 8255,
      "Yes": 8256,
      "ĠTur": 8257,
      "ĠPet": 8258,
      "Ġclimate": 8259,
      "Ġtypically": 8260,
      "]\\|": 8261,
      "cisco": 8262,
      "once": 8263,
      "icians": 8264,
      "Ġproceed": 8265,
      "scious": 8266,
      "price": 8267,
      "Ġtechniques": 8268,
      "memory": 8269,
      "Ġfellow": 8270,
      "ĠToday": 8271,
      "ĠUN": 8272,
      "Play": 8273,
      "WN": 8274,
      "publ": 8275,
      "yan": 8276,
      "ĠSociety": 8277,
      "ĠHT": 8278,
      "ivo": 8279,
      "Ġphase": 8280,
      "Ġbelong": 8281,
      "tensorflow": 8282,
      "Ġmarried": 8283,
      "Ġcultural": 8284,
      "Ġtries": 8285,
      "internal": 8286,
      "Ġselling": 8287,
      "edDict": 8288,
      "Ġlayout": 8289,
      "ĠCannot": 8290,
      "Ġsitting": 8291,
      "itle": 8292,
      "Ġyesterday": 8293,
      "extension": 8294,
      "raq": 8295,
      "blank": 8296,
      "ospf": 8297,
      "clusion": 8298,
      "gal": 8299,
      "reams": 8300,
      "ĠJim": 8301,
      "Ġrecipe": 8302,
      "raig": 8303,
      "Ġsupports": 8304,
      "\"><": 8305,
      "Ġdetect": 8306,
      "best": 8307,
      "okes": 8308,
      "configuration": 8309,
      "validate": 8310,
      "Ġdetailed": 8311,
      "ĠCentral": 8312,
      "ĠSecurity": 8313,
      "tcloud": 8314,
      "iler": 8315,
      "Ġstrugg": 8316,
      "icken": 8317,
      "!!!!": 8318,
      "cloudlab": 8319,
      "Ġbucket": 8320,
      "slowvm": 8321,
      "Just": 8322,
      "rical": 8323,
      "10018": 8324,
      "Ġsitu": 8325,
      "Member": 8326,
      "ĠĠĠĠĠĠĠĠĠĠĠĠĊ": 8327,
      "Ġstored": 8328,
      "lose": 8329,
      "former": 8330,
      "ĠResource": 8331,
      "Ġchemical": 8332,
      "Ġfif": 8333,
      "Ġpitch": 8334,
      "Ġ120": 8335,
      "Ġepoch": 8336,
      "odies": 8337,
      "short": 8338,
      "Ġquiet": 8339,
      "Ġbrother": 8340,
      "Ġdocumentation": 8341,
      "Ġassistance": 8342,
      "acketResponder": 8343,
      "ĠERROR": 8344,
      "ZE": 8345,
      "Ġsan": 8346,
      "imary": 8347,
      "ICK": 8348,
      "Ġtrees": 8349,
      "HOUT": 8350,
      "(['": 8351,
      "holder": 8352,
      "Ġterr": 8353,
      "Ġconcerned": 8354,
      "ĠCommunity": 8355,
      "ĠWall": 8356,
      "Ġ65": 8357,
      "Ġreaders": 8358,
      "children": 8359,
      "Let": 8360,
      "conn": 8361,
      "ĠInit": 8362,
      "Ġcream": 8363,
      "ĠWeek": 8364,
      "Ġtransaction": 8365,
      "Ġinitialized": 8366,
      "Ġnovel": 8367,
      "104": 8368,
      "Ġplants": 8369,
      "Ġdepart": 8370,
      "dropbox": 8371,
      "ensors": 8372,
      "Ġbusy": 8373,
      "Ġfunding": 8374,
      "ĠAfrican": 8375,
      "Many": 8376,
      "Ġfruit": 8377,
      "Ġodd": 8378,
      "Ġment": 8379,
      "Ġcompre": 8380,
      "Ġaccounts": 8381,
      "Select": 8382,
      "ĠÃ": 8383,
      "ĠLo": 8384,
      "plugin": 8385,
      "ĠGerman": 8386,
      "LIST": 8387,
      "ĠMusic": 8388,
      "=%": 8389,
      "dates": 8390,
      "ĠEnd": 8391,
      "asts": 8392,
      "Ġapart": 8393,
      "commod": 8394,
      "Options": 8395,
      "kit": 8396,
      "Ġcer": 8397,
      "control": 8398,
      "LECT": 8399,
      "Ġvector": 8400,
      "################################################################": 8401,
      "Cam": 8402,
      "Ġevaluate": 8403,
      "ĠNet": 8404,
      "Ġwaste": 8405,
      "Ġphil": 8406,
      "\"].": 8407,
      "ACT": 8408,
      "Ġbon": 8409,
      "Ġnine": 8410,
      "istan": 8411,
      "Ġinterests": 8412,
      "factor": 8413,
      "Sim": 8414,
      "Well": 8415,
      "Ġpk": 8416,
      "ĠMass": 8417,
      "Ġseat": 8418,
      "Init": 8419,
      "FILE": 8420,
      "Ġsides": 8421,
      "Ġyes": 8422,
      "Ġstats": 8423,
      "Ġchair": 8424,
      "Ġ49": 8425,
      "Ġscan": 8426,
      "Ġfeat": 8427,
      "Ġenjoyed": 8428,
      "MAN": 8429,
      "conds": 8430,
      "Ġintellig": 8431,
      "ariable": 8432,
      "Ġloan": 8433,
      "operand": 8434,
      "Ġinstallation": 8435,
      "Ġprofessionals": 8436,
      "Ġpanel": 8437,
      "unc": 8438,
      "173": 8439,
      "Ġmovies": 8440,
      ")])": 8441,
      "ydk": 8442,
      "Ġillust": 8443,
      "ĠValley": 8444,
      "ndim": 8445,
      "umin": 8446,
      "ĠGlobal": 8447,
      "Ġcolle": 8448,
      "Ġafternoon": 8449,
      "gypt": 8450,
      "However": 8451,
      "DATA": 8452,
      "Google": 8453,
      "âĸ": 8454,
      "ĠAS": 8455,
      "nic": 8456,
      "Ġner": 8457,
      "ĠReser": 8458,
      "package": 8459,
      "ĠGovernment": 8460,
      "={'": 8461,
      "lets": 8462,
      "shop": 8463,
      "ĠEmp": 8464,
      "Cloud": 8465,
      "rooms": 8466,
      "Ġourselves": 8467,
      "\"}": 8468,
      "nce": 8469,
      "Ġtough": 8470,
      "Ġimplied": 8471,
      "Ġprison": 8472,
      "***": 8473,
      "Ġrepair": 8474,
      "Ġfacility": 8475,
      "otypes": 8476,
      "abil": 8477,
      "ĠYO": 8478,
      "Ġtells": 8479,
      "Returns": 8480,
      "Gr": 8481,
      "Ġhun": 8482,
      "Ġ102": 8483,
      "second": 8484,
      "Ġproposed": 8485,
      "gricult": 8486,
      "Ġdelay": 8487,
      "plicate": 8488,
      "Thunder": 8489,
      "Ġbegins": 8490,
      "\"\\": 8491,
      "Method": 8492,
      "Qt": 8493,
      "Ġnotification": 8494,
      "shift": 8495,
      "ĠJeff": 8496,
      "Attr": 8497,
      "Ġintroduced": 8498,
      "Ġreligious": 8499,
      "Ġcry": 8500,
      "Ġfly": 8501,
      "Ġfell": 8502,
      "ixel": 8503,
      "Ġimportance": 8504,
      "ĠIts": 8505,
      "filters": 8506,
      "Ġfamiliar": 8507,
      "Ġdimensions": 8508,
      "Ġdogs": 8509,
      "VALID": 8510,
      "Ġtab": 8511,
      "ĠSupport": 8512,
      "Ġ})": 8513,
      "TE": 8514,
      "astype": 8515,
      "cho": 8516,
      "ĠAuthor": 8517,
      "scribe": 8518,
      "Ġaffected": 8519,
      "Ġmarriage": 8520,
      "Dr": 8521,
      "nergy": 8522,
      "Ġcallback": 8523,
      "targets": 8524,
      "mg": 8525,
      "Ġbat": 8526,
      "Ġquote": 8527,
      "collect": 8528,
      "arrant": 8529,
      "OperData": 8530,
      "cv": 8531,
      "Ã¡": 8532,
      "ĠLove": 8533,
      "Ġnoted": 8534,
      "Ġ47": 8535,
      "ducing": 8536,
      "Ġthick": 8537,
      "Container": 8538,
      "Ġexplain": 8539,
      "ĠIraq": 8540,
      "eph": 8541,
      "Ġdesigns": 8542,
      "Ġproposal": 8543,
      "Cell": 8544,
      "Ġdance": 8545,
      "oking": 8546,
      "Ġpicked": 8547,
      "Ġsympy": 8548,
      "Ġevaluation": 8549,
      "84671": 8550,
      "Cond": 8551,
      "SER": 8552,
      "amm": 8553,
      "seconds": 8554,
      "appro": 8555,
      "export": 8556,
      "Ġvan": 8557,
      "Ġpromote": 8558,
      ".âĢĻ": 8559,
      "Other": 8560,
      "Ġfort": 8561,
      "ansion": 8562,
      "Ġpositions": 8563,
      "variables": 8564,
      "Ġprocedure": 8565,
      "127": 8566,
      "ĠEnter": 8567,
      "rus": 8568,
      "Ġlistening": 8569,
      "Ġgreatest": 8570,
      "mbols": 8571,
      "dfs": 8572,
      "ĠPOST": 8573,
      "dc": 8574,
      "ĠTake": 8575,
      "ĠSign": 8576,
      "Ġ((": 8577,
      "asket": 8578,
      "Ġsubprocess": 8579,
      "ĠApp": 8580,
      "Ġingredients": 8581,
      "Gu": 8582,
      "Mark": 8583,
      "ĠWake": 8584,
      "ĠRights": 8585,
      "oster": 8586,
      "Ġrepresents": 8587,
      "Ġturns": 8588,
      "Ġcauses": 8589,
      "Policy": 8590,
      "Description": 8591,
      "Ġts": 8592,
      "agger": 8593,
      "Ġreturning": 8594,
      "Ġscores": 8595,
      "Ġrepresenting": 8596,
      "Thunderbolt": 8597,
      "car": 8598,
      "ĠCEO": 8599,
      "ĠHand": 8600,
      "ĠJose": 8601,
      "Ġreset": 8602,
      "575": 8603,
      "Ġpolling": 8604,
      "database": 8605,
      "Ġattempting": 8606,
      "Ġcorresponding": 8607,
      "Internet": 8608,
      "ĠGermany": 8609,
      "#!": 8610,
      "amount": 8611,
      "Ġdivision": 8612,
      "utting": 8613,
      "ĠAward": 8614,
      "ĠFort": 8615,
      "ipal": 8616,
      "ĠInvest": 8617,
      "Ġchecks": 8618,
      "Ġexecutive": 8619,
      "Ġinfluence": 8620,
      "ĠWITHOUT": 8621,
      "CP": 8622,
      "ixed": 8623,
      "Ġtargets": 8624,
      "Ġspecifically": 8625,
      "Target": 8626,
      "ala": 8627,
      "ĠMulti": 8628,
      "ĠFund": 8629,
      "Ġ63": 8630,
      "Ġdecades": 8631,
      "transaction": 8632,
      "Args": 8633,
      "hetic": 8634,
      "Ġforg": 8635,
      "107": 8636,
      "ploration": 8637,
      "Ġbelief": 8638,
      "center": 8639,
      "Ġmetal": 8640,
      "Ġexplore": 8641,
      "Graph": 8642,
      "Ġstret": 8643,
      "Ġconcent": 8644,
      "ĠLicensed": 8645,
      "Ġju": 8646,
      "Ġadopt": 8647,
      "Ġachiev": 8648,
      "Ġpartnership": 8649,
      "iminal": 8650,
      "commit": 8651,
      "_,": 8652,
      "Ġtight": 8653,
      "Ġforced": 8654,
      "ĠMel": 8655,
      ")::": 8656,
      "components": 8657,
      "Ġ*****": 8658,
      "created": 8659,
      "Ġhandling": 8660,
      "Ġsupporting": 8661,
      "Ġapps": 8662,
      "ĠTrump": 8663,
      "-/": 8664,
      "inx": 8665,
      "Ġgige": 8666,
      "Ġchosen": 8667,
      "According": 8668,
      "Ġarrived": 8669,
      "LS": 8670,
      "Ġyouth": 8671,
      "udd": 8672,
      "Ġsigns": 8673,
      "ĠIslam": 8674,
      "CI": 8675,
      "Ġfaster": 8676,
      "eds": 8677,
      "Ġinner": 8678,
      "Ġlat": 8679,
      "tyle": 8680,
      "ANG": 8681,
      "77229": 8682,
      "Ġwarnings": 8683,
      "130": 8684,
      "sur": 8685,
      "Ġmigr": 8686,
      "ads": 8687,
      "Ġchat": 8688,
      "Ġ-----------------------------------------------------------------": 8689,
      "Token": 8690,
      "iples": 8691,
      "ĠLand": 8692,
      "169": 8693,
      "Click": 8694,
      "bad": 8695,
      "eler": 8696,
      "ĠEll": 8697,
      "Ġlocally": 8698,
      "Ġ>>": 8699,
      "DEFAULT": 8700,
      "staticmethod": 8701,
      "Ġparking": 8702,
      "Ġrapid": 8703,
      "Ġbundle": 8704,
      "Sk": 8705,
      "Ġvert": 8706,
      "Ġsensor": 8707,
      "ĠPeter": 8708,
      "ĠLos": 8709,
      "Ġartists": 8710,
      "Arg": 8711,
      "effect": 8712,
      "Lay": 8713,
      "Pseudow": 8714,
      "pub": 8715,
      "Ġbrown": 8716,
      "ipp": 8717,
      "aws": 8718,
      "Ġworse": 8719,
      "Ġcourses": 8720,
      "Ġpylint": 8721,
      "3306": 8722,
      "achment": 8723,
      "processHandle": 8724,
      "BroadcastAction": 8725,
      "processHandleBroadcastAction": 8726,
      "lr": 8727,
      "Ġfreedom": 8728,
      "Ġgover": 8729,
      "Ġunderlying": 8730,
      "ĠAccording": 8731,
      "Ġversions": 8732,
      "ĠCath": 8733,
      "Ġ[[": 8734,
      "Ġshares": 8735,
      "Ġplugin": 8736,
      "ĠConference": 8737,
      "595": 8738,
      "ien": 8739,
      "Ġsizes": 8740,
      "Ġrevenue": 8741,
      "ĠIll": 8742,
      "ĠAT": 8743,
      "ĠExt": 8744,
      "ĠImport": 8745,
      "Ġmaintenance": 8746,
      ",)": 8747,
      "language": 8748,
      "Ġath": 8749,
      "Ġbeach": 8750,
      "ĠDelet": 8751,
      "ĠâĢ¢": 8752,
      "ĠKeep": 8753,
      "Ġcontem": 8754,
      "subscription": 8755,
      "Ġtechnologies": 8756,
      "calls": 8757,
      "Auto": 8758,
      "possible": 8759,
      "Use": 8760,
      "Ð»": 8761,
      "render": 8762,
      "osoph": 8763,
      "Ġ150": 8764,
      "Ġrecorded": 8765,
      "fold": 8766,
      "lig": 8767,
      "Ġpul": 8768,
      "services": 8769,
      "Ġ2001": 8770,
      "Ġ75": 8771,
      "di": 8772,
      "gate": 8773,
      "onic": 8774,
      "ifest": 8775,
      "Ġ2003": 8776,
      "Ġgrid": 8777,
      "Ġconsumer": 8778,
      "Context": 8779,
      "multi": 8780,
      "0001": 8781,
      "Ġrub": 8782,
      "Ġentertain": 8783,
      "Ġsky": 8784,
      "Ġtrouble": 8785,
      "Ġgoverning": 8786,
      "Cred": 8787,
      "WE": 8788,
      "Ġwid": 8789,
      "Ġpandas": 8790,
      "Ġdraft": 8791,
      "cean": 8792,
      "Ġshell": 8793,
      "Ġdrugs": 8794,
      "burg": 8795,
      "fol": 8796,
      "found": 8797,
      "Ġ'{": 8798,
      "ĠLight": 8799,
      "Property": 8800,
      "ND": 8801,
      "iors": 8802,
      "ett": 8803,
      "Ġreward": 8804,
      "schedul": 8805,
      "Ġfollows": 8806,
      "Ġapproximately": 8807,
      "month": 8808,
      "ASE": 8809,
      "eln": 8810,
      "olved": 8811,
      "ocker": 8812,
      "Ġstanding": 8813,
      "Ġprompt": 8814,
      "Ġemployee": 8815,
      "Ġseeking": 8816,
      "Ġdie": 8817,
      "Ġvary": 8818,
      "apply": 8819,
      "Ġdiscount": 8820,
      "Ġfees": 8821,
      "Ġborder": 8822,
      "ĠHD": 8823,
      "228": 8824,
      "ĠĠĠĠĠĠĠĠĠĠĠĠĠĠĠĠĠĠĠĠĠĠĠĠĠĠĠĠĠĠĠĠĠĠ": 8825,
      "astructure": 8826,
      "mut": 8827,
      "Ġlived": 8828,
      "dden": 8829,
      "attribute": 8830,
      "Ġeducational": 8831,
      "Ġnative": 8832,
      "---": 8833,
      "allery": 8834,
      "Ġanywhere": 8835,
      "phone": 8836,
      "Ġprotocol": 8837,
      "nament": 8838,
      "Ġimproved": 8839,
      "Ġcandidate": 8840,
      "Ġmurder": 8841,
      "Ġlaunched": 8842,
      "Ġlunch": 8843,
      "ĠBas": 8844,
      "ĠLI": 8845,
      "oses": 8846,
      "Ġretri": 8847,
      "Ġaddr": 8848,
      "Ġflight": 8849,
      "Bu": 8850,
      "double": 8851,
      "Ġ[(": 8852,
      "ĠDat": 8853,
      "ecom": 8854,
      "Ġrealize": 8855,
      "Ġmatches": 8856,
      "Ġdetermined": 8857,
      "ĠTechnology": 8858,
      "Ġcrisis": 8859,
      "Label": 8860,
      "See": 8861,
      "Ġmel": 8862,
      "ĠFull": 8863,
      "ĠHuman": 8864,
      "ĠGir": 8865,
      "Ġ39": 8866,
      "ĠView": 8867,
      "Ġcandidates": 8868,
      "Fin": 8869,
      "Sources": 8870,
      "Ġtelling": 8871,
      "Ġ2021": 8872,
      "Ġadministr": 8873,
      "Ġmotiv": 8874,
      "About": 8875,
      "enor": 8876,
      "Ġpa": 8877,
      "ĠPage": 8878,
      "Ġanimal": 8879,
      "Ġweap": 8880,
      "ĠKIND": 8881,
      "scape": 8882,
      "ĠUnless": 8883,
      "Ġschema": 8884,
      "captureLogRun": 8885,
      "Ġcached": 8886,
      "Ġpure": 8887,
      "135": 8888,
      "Ġsubstant": 8889,
      "Ġguest": 8890,
      "plicated": 8891,
      "plications": 8892,
      "BI": 8893,
      "QU": 8894,
      "rary": 8895,
      "Ġaid": 8896,
      "Ġsport": 8897,
      "Ġresolution": 8898,
      "Ġbigger": 8899,
      "ĠFrank": 8900,
      "ĠParis": 8901,
      "single": 8902,
      "Ġaspects": 8903,
      ")||": 8904,
      "Enc": 8905,
      "PI": 8906,
      "Ġdivid": 8907,
      "ĠAtl": 8908,
      "Ġtreated": 8909,
      "Ġhers": 8910,
      "Ġstated": 8911,
      "Ġveter": 8912,
      "cale": 8913,
      "dirname": 8914,
      "DNSResponder": 8915,
      "Ġ185": 8916,
      "Ġpoll": 8917,
      "Command": 8918,
      "Ġinvestigation": 8919,
      "LOW": 8920,
      "Ġtrading": 8921,
      "pid": 8922,
      "Ġreduced": 8923,
      "ISO": 8924,
      "Ġconsistent": 8925,
      "Async": 8926,
      "Ġpriv": 8927,
      "Ġliqu": 8928,
      "ĠMot": 8929,
      "Ġ44": 8930,
      "(\"/": 8931,
      "Ġneck": 8932,
      "Ġconsumers": 8933,
      "ĠMartin": 8934,
      "iams": 8935,
      "kr": 8936,
      "ratio": 8937,
      "ingly": 8938,
      "Ġblank": 8939,
      "iso": 8940,
      "-----": 8941,
      "ibilities": 8942,
      "Implemented": 8943,
      "Ġessay": 8944,
      "Mar": 8945,
      "dem": 8946,
      "nov": 8947,
      "ailability": 8948,
      "125": 8949,
      "argv": 8950,
      "Ġhighlight": 8951,
      "ĠHTML": 8952,
      "nel": 8953,
      "yang": 8954,
      "ĠAccess": 8955,
      "Ġextended": 8956,
      "Ġtelevision": 8957,
      "Ġoccasion": 8958,
      "IOR": 8959,
      "NET": 8960,
      "Ġriver": 8961,
      "HiHealth": 8962,
      "ĠLouis": 8963,
      "ĠCard": 8964,
      "unique": 8965,
      "ĠHistory": 8966,
      "appy": 8967,
      "335": 8968,
      "BM": 8969,
      "Ġ])": 8970,
      "role": 8971,
      "ician": 8972,
      "Ġrid": 8973,
      "Ġtrigger": 8974,
      "Ġsequ": 8975,
      "Ġtaxes": 8976,
      "CM": 8977,
      "OUT": 8978,
      "Ġaccident": 8979,
      "Ġinteger": 8980,
      "Ġprotein": 8981,
      "star": 8982,
      "Ġ<<<": 8983,
      "Ġunivers": 8984,
      "ĠĠĠĠĠĠĠĠĠĠĠĠĠĠĠĠĠĠĠĠĠĠĠĠĠĠĠĠĠĠĠĠĠ": 8985,
      "azy": 8986,
      "egin": 8987,
      "ĠWilliam": 8988,
      "Attempt": 8989,
      "Ġenhance": 8990,
      "deg": 8991,
      "mk": 8992,
      "106": 8993,
      "Ġalert": 8994,
      "ĠDEL": 8995,
      "constant": 8996,
      "157": 8997,
      "ĠReport": 8998,
      "Ġwinner": 8999,
      "``.": 9000,
      "Ġdelivered": 9001,
      "Ġadvertising": 9002,
      "Builder": 9003,
      "video": 9004,
      "Ġ2002": 9005,
      "ebook": 9006,
      "Ġtimestamp": 9007,
      "Ġviolence": 9008,
      "Ġterror": 9009,
      "Ġassets": 9010,
      "ĠBer": 9011,
      "__)": 9012,
      "Ġaccommod": 9013,
      "urls": 9014,
      "validation": 9015,
      "Ġoccup": 9016,
      "31610": 9017,
      "history": 9018,
      "ĠFederal": 9019,
      "476": 9020,
      "Ġzone": 9021,
      "ĠBeach": 9022,
      "Ġcircuit": 9023,
      "LinkScope": 9024,
      "daily": 9025,
      "ĠFind": 9026,
      "Ġrecovery": 9027,
      "builder": 9028,
      "menu": 9029,
      "sembly": 9030,
      "Ġwheel": 9031,
      "#!/": 9032,
      "Ass": 9033,
      "]])": 9034,
      "pa": 9035,
      "widget": 9036,
      "Ġbike": 9037,
      "ĠTask": 9038,
      "Ġsudden": 9039,
      "ĠJones": 9040,
      "Ġgrade": 9041,
      "Ġassign": 9042,
      "Ġconfirmed": 9043,
      "ĠSecond": 9044,
      "!)": 9045,
      "Ġspiritual": 9046,
      "ho": 9047,
      "Ġ'',": 9048,
      "Ġannot": 9049,
      "Ġcounty": 9050,
      "Tim": 9051,
      "182": 9052,
      "upload": 9053,
      "Ġconsidering": 9054,
      "Ġexplained": 9055,
      "Ġdiscovered": 9056,
      ")\"": 9057,
      "Most": 9058,
      "MENT": 9059,
      "Ġsettle": 9060,
      "1001": 9061,
      "ivalent": 9062,
      "(?": 9063,
      "PAR": 9064,
      "RC": 9065,
      "ĠGO": 9066,
      "Ġrecover": 9067,
      "ĠJoe": 9068,
      "ĠCarolina": 9069,
      "perform": 9070,
      "6379": 9071,
      "bits": 9072,
      "Ġshard": 9073,
      "114": 9074,
      "Ġnoise": 9075,
      "Ġ%(": 9076,
      "ĠAcadem": 9077,
      "lastname": 9078,
      "ĠMcC": 9079,
      "Ñĥ": 9080,
      "ĠLocation": 9081,
      "Ġelimin": 9082,
      "appoint": 9083,
      "369": 9084,
      "Ġboost": 9085,
      "ĠAirPort": 9086,
      "}}": 9087,
      "Ġcategories": 9088,
      "stub": 9089,
      "Ġratio": 9090,
      "ĠRest": 9091,
      "Ġfrag": 9092,
      "ĠRichard": 9093,
      "hensive": 9094,
      "Ut": 9095,
      "world": 9096,
      "080": 9097,
      "Ġcheap": 9098,
      "Ġdollars": 9099,
      "amber": 9100,
      "ĠWay": 9101,
      "ĠON": 9102,
      "\":\"": 9103,
      "layout": 9104,
      "bott": 9105,
      "iat": 9106,
      "socket": 9107,
      "Ġwebsites": 9108,
      "\"][\"": 9109,
      "Ġ>>>>": 9110,
      "Ġfavour": 9111,
      "Ġacademic": 9112,
      "hex": 9113,
      "upper": 9114,
      "ĠQt": 9115,
      "ĠCanad": 9116,
      "Ġadults": 9117,
      "Ġemergency": 9118,
      "bind": 9119,
      "gl": 9120,
      "atings": 9121,
      "Ġdesire": 9122,
      "Ġcrime": 9123,
      "Ġpresentation": 9124,
      "Ġnamespace": 9125,
      "CharField": 9126,
      "LICENSE": 9127,
      "Ðº": 9128,
      "Ġstars": 9129,
      "oom": 9130,
      "rep": 9131,
      "Ġ\"_": 9132,
      "ĠDate": 9133,
      "ĠEgypt": 9134,
      "ERROR": 9135,
      "Ġinspired": 9136,
      "Mock": 9137,
      "USE": 9138,
      "ĠFA": 9139,
      "plates": 9140,
      "REN": 9141,
      "Ġdomin": 9142,
      "Fe": 9143,
      "pan": 9144,
      "Ġtail": 9145,
      "ĠSearch": 9146,
      "Ġsuitable": 9147,
      "edures": 9148,
      "ĠComput": 9149,
      "Ġbuildings": 9150,
      "beat": 9151,
      "LOG": 9152,
      "stitution": 9153,
      "iPhone": 9154,
      "Ġbinary": 9155,
      "ĠSE": 9156,
      "Ġrequested": 9157,
      "Series": 9158,
      "Ġhonor": 9159,
      "Ġ<<<<": 9160,
      "aun": 9161,
      "atin": 9162,
      "estion": 9163,
      "ĠManager": 9164,
      "ĠDen": 9165,
      "Ġven": 9166,
      "().__": 9167,
      "Ġcarried": 9168,
      "Ġscheduled": 9169,
      "iveness": 9170,
      "Enum": 9171,
      "repo": 9172,
      "contract": 9173,
      "posite": 9174,
      "Ġtransition": 9175,
      "Ġprotected": 9176,
      "Ġvisitors": 9177,
      "Ġbringing": 9178,
      "Ġdegrees": 9179,
      "component": 9180,
      "Ġkeeps": 9181,
      "Ġannounce": 9182,
      "Ġcritic": 9183,
      "Admin": 9184,
      "Ġhousing": 9185,
      "DITION": 9186,
      "iest": 9187,
      "Ġmine": 9188,
      "Ġ139": 9189,
      "Ġ46": 9190,
      "Ġsignalled": 9191,
      "Ġhistorical": 9192,
      "IE": 9193,
      "Ġfilms": 9194,
      "STR": 9195,
      "Ġdepends": 9196,
      "functions": 9197,
      "Ġtypical": 9198,
      "namespace": 9199,
      "Ġholds": 9200,
      "ĠAngeles": 9201,
      "Completed": 9202,
      "Op": 9203,
      "Te": 9204,
      "bor": 9205,
      "Ġalcohol": 9206,
      "Ġwealth": 9207,
      "ĠExper": 9208,
      "Ġperspective": 9209,
      "DER": 9210,
      "lap": 9211,
      "Ġwearing": 9212,
      "Ġbutter": 9213,
      "Ġ*,": 9214,
      "Ġperman": 9215,
      "Ġremov": 9216,
      "Ġ{}\".": 9217,
      "ĠVirginia": 9218,
      "Look": 9219,
      "mosph": 9220,
      "Ġmal": 9221,
      "ĠLind": 9222,
      "()))": 9223,
      "Ġ403": 9224,
      "146": 9225,
      "241": 9226,
      "Ġtested": 9227,
      "ĠCharl": 9228,
      "annot": 9229,
      "secret": 9230,
      "ĠLocal": 9231,
      "233": 9232,
      "Ġremark": 9233,
      "azz": 9234,
      "Ġawesome": 9235,
      "Ġappearance": 9236,
      "Types": 9237,
      "ĠCA": 9238,
      "ĠMS": 9239,
      "quired": 9240,
      "ĠHave": 9241,
      "Ġking": 9242,
      "acter": 9243,
      "Ġtrace": 9244,
      "ĠĠĠĠĠĠĠĠĠĠĠĠĠĠĠĠĠĠĠĠĠĠĠĠĠĠĠĠĠĠĠĠĠĠĠĠĠĠĠĠĠĠĠĠĠĠĠ": 9245,
      "Ġspaces": 9246,
      "depend": 9247,
      "Logger": 9248,
      "exceptions": 9249,
      ":||": 9250,
      "WARE": 9251,
      "iability": 9252,
      "Ġrom": 9253,
      "Ġ101": 9254,
      "Ġcommitment": 9255,
      "Ġmale": 9256,
      "Ġleague": 9257,
      "\");": 9258,
      "ĠassertiCmd": 9259,
      "Ġpackages": 9260,
      "Ġparticipate": 9261,
      "Ġinstitutions": 9262,
      "dumps": 9263,
      "Ġnav": 9264,
      "ĠCy": 9265,
      "Ġusual": 9266,
      "Ġpassing": 9267,
      "Ġentered": 9268,
      ")|": 9269,
      "oor": 9270,
      "Ġgro": 9271,
      "ĠBi": 9272,
      "undle": 9273,
      "Ġfle": 9274,
      "Ġlux": 9275,
      "acific": 9276,
      "aching": 9277,
      "backend": 9278,
      "Change": 9279,
      "Ġmotion": 9280,
      "security": 9281,
      "Access": 9282,
      "ĠMont": 9283,
      "ĠFamily": 9284,
      "ĠBAS": 9285,
      "Ġplastic": 9286,
      "eller": 9287,
      "Insert": 9288,
      "Ġresulting": 9289,
      "Ġstrategies": 9290,
      "eved": 9291,
      "Ġfacts": 9292,
      "Ġapproved": 9293,
      "DEN": 9294,
      "eah": 9295,
      "xff": 9296,
      "zure": 9297,
      "serial": 9298,
      "Ġserialized": 9299,
      "CamIn": 9300,
      "member": 9301,
      "Ġpending": 9302,
      "ĠWal": 9303,
      "Ġdefend": 9304,
      "187": 9305,
      "Ġ56": 9306,
      "ĠĠĠĠĠĠĠĠĠĠĠĠĠĠĠĠĠĠĠĠĠĠĠĠĠĠĠĠĠĠĠĠĠĠĠĠĠĠ": 9307,
      "Ġsubmit": 9308,
      "Ġauthority": 9309,
      "ĠCloud": 9310,
      "ĠAppleCamIn": 9311,
      "selector": 9312,
      "fc": 9313,
      "ttp": 9314,
      "segment": 9315,
      "Ġeffectively": 9316,
      "Ġcleaning": 9317,
      "bel": 9318,
      "pdf": 9319,
      "icer": 9320,
      "ĠBR": 9321,
      "([[": 9322,
      "Ġhardware": 9323,
      "opts": 9324,
      "Runner": 9325,
      "****************": 9326,
      "ĠHEAD": 9327,
      "ĠAff": 9328,
      "ĠFlo": 9329,
      "Ġchapter": 9330,
      "ĠSteve": 9331,
      "Ġinteraction": 9332,
      "Ġportion": 9333,
      "Ġnetworks": 9334,
      "Ġhousehold": 9335,
      "ĠMexico": 9336,
      "Press": 9337,
      "idents": 9338,
      "ĠMike": 9339,
      "ĠEnt": 9340,
      "progress": 9341,
      "deploy": 9342,
      "ĠJohnson": 9343,
      "ĠGoogleSoftware": 9344,
      "ĠGoogleSoftwareUpdateAgent": 9345,
      "Search": 9346,
      "Ġtur": 9347,
      "Ġce": 9348,
      "ĠMO": 9349,
      "ints": 9350,
      "Ġentirely": 9351,
      "Ġencourage": 9352,
      "Security": 9353,
      "uzz": 9354,
      "yaml": 9355,
      "otic": 9356,
      "sem": 9357,
      "ĠChris": 9358,
      "Ġflags": 9359,
      "Ġfantastic": 9360,
      "({'": 9361,
      "Met": 9362,
      "ipl": 9363,
      "Ġped": 9364,
      "ĠPubl": 9365,
      "Ġchart": 9366,
      "ĠVict": 9367,
      "ĠWhere": 9368,
      "Ġexperiment": 9369,
      "Ġinvestors": 9370,
      "blue": 9371,
      "Ġengineering": 9372,
      "bur": 9373,
      "lan": 9374,
      "Ġsending": 9375,
      "Ġdates": 9376,
      "Ġlit": 9377,
      "exc": 9378,
      "extra": 9379,
      "plt": 9380,
      "Ġplug": 9381,
      "TER": 9382,
      "Ġrul": 9383,
      "ĠLibrary": 9384,
      "254": 9385,
      "Ġvalu": 9386,
      "Ġsyn": 9387,
      "Ġpatterns": 9388,
      "NULL": 9389,
      "xi": 9390,
      "yard": 9391,
      "ÃŃ": 9392,
      "lywood": 9393,
      "ĠBal": 9394,
      "Ġjudge": 9395,
      "Ġvictory": 9396,
      "Communicator": 9397,
      "Ġtro": 9398,
      "ĠBE": 9399,
      "quality": 9400,
      "Python": 9401,
      "ropy": 9402,
      "194": 9403,
      "away": 9404,
      "Ġadds": 9405,
      "553": 9406,
      "Ġvalidation": 9407,
      "fa": 9408,
      "ĠMA": 9409,
      "cli": 9410,
      "147": 9411,
      "152": 9412,
      "Ġindices": 9413,
      "Ġemphas": 9414,
      "supported": 9415,
      "asters": 9416,
      "Ġvent": 9417,
      "putation": 9418,
      "ĠAllocator": 9419,
      "Ġmatching": 9420,
      "RMCommunicator": 9421,
      "IORep": 9422,
      "326": 9423,
      "Delete": 9424,
      "ãĢ": 9425,
      "Ġstorm": 9426,
      "Ġrough": 9427,
      "ĠPUT": 9428,
      "020": 9429,
      "Ġplanned": 9430,
      "Ġagencies": 9431,
      "Ġjustice": 9432,
      "Ġswim": 9433,
      "Color": 9434,
      "counter": 9435,
      "isters": 9436,
      "Ġyards": 9437,
      "ĠMer": 9438,
      "1731": 9439,
      "Ġuniversity": 9440,
      "341": 9441,
      "ĠPlus": 9442,
      "SIZE": 9443,
[...]
